{"<s>": 0, "</s>": 1, "<pad>": 2, "<unk>": 3, "<special0>": 4, "<special1>": 5, "<special2>": 6, "<special3>": 7, "<special4>": 8, "<special5>": 9, "<special6>": 10, "<special7>": 11, "<special8>": 12, "<special9>": 13, ",</w>": 14, ".</w>": 15, "\"</w>": 16, "the</w>": 17, "de</w>": 18, "a</w>": 19, "in</w>": 20, ")</w>": 21, "of</w>": 22, "(</w>": 23, "and</w>": 24, "sa</w>": 25, "to</w>": 26, "i</w>": 27, "la</w>": 28, "en</w>": 29, "was</w>": 30, "is</w>": 31, ":</w>": 32, "der</w>": 33, "on</w>": 34, "'</w>": 35, "-</w>": 36, "as</w>": 37, "y</w>": 38, "の</w>": 39, "e</w>": 40, "for</w>": 41, "The</w>": 42, "el</w>": 43, "в</w>": 44, "்</w>": 45, "nga</w>": 46, "un</w>": 47, "he</w>": 48, "que</w>": 49, "at</w>": 50, "ang</w>": 51, "that</w>": 52, "und</w>": 53, "with</w>": 54, "di</w>": 55, "die</w>": 56, "に</w>": 57, "et</w>": 58, "le</w>": 59, "an</w>": 60, "ed</w>": 61, "it</w>": 62, "his</w>": 63, "Ang</w>": 64, "ing</w>": 65, "den</w>": 66, "'s</w>": 67, "des</w>": 68, "se</w>": 69, "er</w>": 70, "es</w>": 71, "и</w>": 72, "del</w>": 73, "by</w>": 74, "är</w>": 75, "на</w>": 76, "s</w>": 77, "o</w>": 78, "は</w>": 79, "-": 80, "l'</w>": 81, "her</w>": 82, "à</w>": 83, "్</w>": 84, "na</w>": 85, "al</w>": 86, "from</w>": 87, "た</w>": 88, "を</w>": 89, "il</w>": 90, "da</w>": 91, ";</w>": 92, "do</w>": 93, "°</w>": 94, "る</w>": 95, "les</w>": 96, "km</w>": 97, "she</w>": 98, "In</w>": 99, "est</w>": 100, "て</w>": 101, "し</w>": 102, "で</w>": 103, "w</w>": 104, "്</w>": 105, "are</w>": 106, "you</w>": 107, "が</w>": 108, "と</w>": 109, "van</w>": 110, "una</w>": 111, "的</w>": 112, "had</w>": 113, "von</w>": 114, "い</w>": 115, "्</w>": 116, "be</w>": 117, "or</w>": 118, "du</w>": 119, "d'</w>": 120, "no</w>": 121, "ug</w>": 122, "were</w>": 123, "je</w>": 124, "ni</w>": 125, "re": 126, "u</w>": 127, "och</w>": 128, "but</w>": 129, "La</w>": 130, "/</w>": 131, "con</w>": 132, "per</w>": 133, "A</w>": 134, "als</w>": 135, "1</w>": 136, "d</w>": 137, "у</w>": 138, "ation</w>": 139, "im</w>": 140, "med</w>": 141, "C.</w>": 142, "2</w>": 143, "'t</w>": 144, "los</w>": 145, "?</w>": 146, "one</w>": 147, "%</w>": 148, "me</w>": 149, "್</w>": 150, "por</w>": 151, "é</w>": 152, "av</w>": 153, "my</w>": 154, "ist</w>": 155, "ka</w>": 156, "not</w>": 157, "palibot</w>": 158, "،</w>": 159, "z</w>": 160, "l</w>": 161, "en": 162, "which</w>": 163, "em</w>": 164, "het</w>": 165, "og</w>": 166, "have</w>": 167, "mit</w>": 168, "te</w>": 169, "\\</w>": 170, "os</w>": 171, "s": 172, "in": 173, "une</w>": 174, "een</w>": 175, "che</w>": 176, "れ</w>": 177, "t</w>": 178, "this</w>": 179, "ar</w>": 180, "so</w>": 181, "年</w>": 182, "him</w>": 183, "(": 184, "su</w>": 185, "な</w>": 186, "3</w>": 187, "্</w>": 188, "das</w>": 189, "um</w>": 190, "milimetro</w>": 191, "ch": 192, "un": 193, "с</w>": 194, "és</w>": 195, "us</w>": 196, "er": 197, "S": 198, "om</w>": 199, "som</w>": 200, "son</w>": 201, "they</w>": 202, "ver": 203, "au</w>": 204, "I</w>": 205, "・</w>": 206, "C</w>": 207, "A": 208, "ers</w>": 209, "has</w>": 210, "ja</w>": 211, "dem</w>": 212, "်</w>": 213, "He</w>": 214, "out</w>": 215, "nasod</w>": 216, "T": 217, "ha</w>": 218, "also</w>": 219, "its</w>": 220, "up</w>": 221, "all</w>": 222, "K": 223, "wurde</w>": 224, "G": 225, "al": 226, "si</w>": 227, "their</w>": 228, "4</w>": 229, "ate</w>": 230, "an": 231, "ar": 232, "Die</w>": 233, "D": 234, "para</w>": 235, "c": 236, "v</w>": 237, "En</w>": 238, "am</w>": 239, "dans</w>": 240, "w": 241, "っ</w>": 242, "z": 243, "par</w>": 244, "been</w>": 245, "who</w>": 246, "first</w>": 247, "De</w>": 248, "あ</w>": 249, "B": 250, "el": 251, "ne</w>": 252, "El</w>": 253, "ein</w>": 254, "zu</w>": 255, "さ</w>": 256, "L": 257, "C": 258, "F": 259, "into</w>": 260, "y": 261, "g": 262, "ent</w>": 263, "como</w>": 264, "over</w>": 265, "n</w>": 266, "Den</w>": 267, "E": 268, "m</w>": 269, "5</w>": 270, "bulan</w>": 271, "W": 272, "M": 273, "P": 274, "H": 275, "kasarangang</w>": 276, "В</w>": 277, "O": 278, "Il</w>": 279, "è</w>": 280, "era</w>": 281, "las</w>": 282, "ia</w>": 283, "ri": 284, "war</w>": 285, "і</w>": 286, "auf</w>": 287, "t": 288, "[</w>": 289, "time</w>": 290, "ro": 291, "es": 292, "st": 293, "bahin</w>": 294, "It</w>": 295, "ten</w>": 296, "R": 297, "man</w>": 298, "ab": 299, "ce</w>": 300, "10</w>": 301, "sh": 302, "when</w>": 303, "at": 304, "would</w>": 305, "della</w>": 306, "ly</w>": 307, "h": 308, "ou</w>": 309, "für</w>": 310, "eine</w>": 311, "de": 312, "е</w>": 313, "k</w>": 314, "f": 315, "و</w>": 316, "d": 317, "han</w>": 318, "]</w>": 319, "we</w>": 320, "or": 321, "said</w>": 322, "не</w>": 323, "what</w>": 324, "as": 325, "på</w>": 326, "ra": 327, "N": 328, "في</w>": 329, "k": 330, "6</w>": 331, "m": 332, "sich</w>": 333, "two</w>": 334, "Le</w>": 335, "con": 336, "e": 337, "there</w>": 338, "va</w>": 339, "can</w>": 340, "about</w>": 341, "more</w>": 342, "–</w>": 343, "é": 344, "за</w>": 345, "pour</w>": 346, "then</w>": 347, "ve</w>": 348, "ant</w>": 349, "th": 350, "ado</w>": 351, "ie</w>": 352, "di": 353, "ad": 354, "qui</w>": 355, "ent": 356, "after</w>": 357, "mga</w>": 358, "n": 359, "h</w>": 360, "op": 361, "b": 362, "like</w>": 363, "le": 364, "is": 365, "V": 366, "back</w>": 367, "p": 368, "other</w>": 369, "ts</w>": 370, "et": 371, "ti": 372, "7</w>": 373, "on": 374, "する</w>": 375, "o": 376, "nel</w>": 377, "је</w>": 378, "ada</w>": 379, "8</w>": 380, "u": 381, "Z": 382, "も</w>": 383, "po": 384, "з</w>": 385, "ata</w>": 386, "li": 387, "dan</w>": 388, "am": 389, "l": 390, "if</w>": 391, "led</w>": 392, "года</w>": 393, "New</w>": 394, "2010</w>": 395, "ó</w>": 396, "them</w>": 397, "ung</w>": 398, "а</w>": 399, "ato</w>": 400, "ale</w>": 401, "age</w>": 402, "za</w>": 403, "ter</w>": 404, "I": 405, "ine</w>": 406, "sch": 407, "!</w>": 408, "در</w>": 409, "men</w>": 410, "та</w>": 411, "sur</w>": 412, "it": 413, "be": 414, "ut": 415, "по</w>": 416, "i": 417, "where</w>": 418, "ac": 419, "ulohan</w>": 420, "Nahimutang</w>": 421, "com</w>": 422, "ta</w>": 423, "od</w>": 424, "lo</w>": 425, "aus</w>": 426, "ses</w>": 427, "only</w>": 428, "до</w>": 429, "mm</w>": 430, "ap": 431, "An": 432, "U": 433, "к</w>": 434, "om": 435, "mar": 436, "ated</w>": 437, "り</w>": 438, "ano</w>": 439, "Ch": 440, "се</w>": 441, "12</w>": 442, "2011</w>": 443, "An</w>": 444, "9</w>": 445, "si": 446, "re</w>": 447, "door</w>": 448, "r": 449, "det</w>": 450, "could</w>": 451, "p</w>": 452, "ma</w>": 453, "ol": 454, "ag": 455, "per": 456, "J": 457, "月</w>": 458, "20</w>": 459, "من</w>": 460, "ad</w>": 461, "ally</w>": 462, "ser</w>": 463, "for": 464, "im": 465, "way</w>": 466, "2009</w>": 467, "just</w>": 468, "Al": 469, "...</w>": 470, "klima</w>": 471, "ch</w>": 472, "av": 473, "entre</w>": 474, "在</w>": 475, "bis</w>": 476, "Ver": 477, "op</w>": 478, "ations</w>": 479, "se": 480, "var</w>": 481, "able</w>": 482, "auch</w>": 483, "ra</w>": 484, "car": 485, "pro": 486, "par": 487, "ni": 488, "dos</w>": 489, "15</w>": 490, "от</w>": 491, "met</w>": 492, "uma</w>": 493, "film</w>": 494, "W</w>": 495, "yang</w>": 496, "sp": 497, "ya</w>": 498, "2007</w>": 499, "tion</w>": 500, "ter": 501, "til</w>": 502, "2008</w>": 503, "under</w>": 504, "да</w>": 505, "els</w>": 506, "made</w>": 507, "od": 508, "O</w>": 509, "ci": 510, "os": 511, "come</w>": 512, "ul": 513, "ir</w>": 514, "sie</w>": 515, "il": 516, "qu": 517, "nach</w>": 518, "ina</w>": 519, "là</w>": 520, "2012</w>": 521, "some</w>": 522, "giiniton</w>": 523, "2006</w>": 524, "ana</w>": 525, "ot": 526, "kinabugnawan</w>": 527, "kinainitan</w>": 528, "Ar": 529, "than</w>": 530, "az</w>": 531, "ob": 532, "по": 533, "before</w>": 534, "у": 535, "ze</w>": 536, "bei</w>": 537, "metros</w>": 538, "на": 539, "pre": 540, "から</w>": 541, "now</w>": 542, "em": 543, "11</w>": 544, "through</w>": 545, "us": 546, "j": 547, "ans</w>": 548, "ini</w>": 549, "של</w>": 550, "v": 551, "ischen</w>": 552, "ex": 553, "Mar": 554, "из</w>": 555, "est": 556, "Der</w>": 557, "ens</w>": 558, "mao</w>": 559, "18</w>": 560, "e-": 561, "su": 562, "ного</w>": 563, "des": 564, "ки</w>": 565, "avec</w>": 566, "2014</w>": 567, "ber": 568, "any</w>": 569, "ка</w>": 570, "_</w>": 571, "।</w>": 572, "part</w>": 573, "inter": 574, "30</w>": 575, "2013</w>": 576, "um": 577, "но</w>": 578, "Sch": 579, "years</w>": 580, "well</w>": 581, "году</w>": 582, "ur": 583, "down</w>": 584, "ning</w>": 585, "a": 586, "是</w>": 587, "elle</w>": 588, "end</w>": 589, "ak": 590, "dé": 591, "人</w>": 592, "In": 593, "com": 594, "ibabaw</w>": 595, "ic</w>": 596, "dis": 597, "ded</w>": 598, "ru": 599, "ai</w>": 600, "sk": 601, "dagat</w>": 602, "voor</w>": 603, "aux</w>": 604, "ne": 605, "не": 606, "2015</w>": 607, "się</w>": 608, "månaden</w>": 609, "new</w>": 610, "به</w>": 611, "On</w>": 612, "ée</w>": 613, "einer</w>": 614, "tra": 615, "16</w>": 616, "most</w>": 617, "в": 618, "ной</w>": 619, "'d</w>": 620, "b</w>": 621, "plus</w>": 622, "roku</w>": 623, "will</w>": 624, "ando</w>": 625, "trakten</w>": 626, "album</w>": 627, "oc": 628, "ed": 629, "sed</w>": 630, "c</w>": 631, "ary</w>": 632, "nederbörd</w>": 633, "Y": 634, "ré": 635, "County</w>": 636, "fue</w>": 637, "zum</w>": 638, "с": 639, "්</w>": 640, "between</w>": 641, "ki</w>": 642, "long</w>": 643, "я</w>": 644, "ek</w>": 645, "sc": 646, "ig": 647, "did</w>": 648, "при": 649, "14</w>": 650, "2000</w>": 651, "ted</w>": 652, "later</w>": 653, "eta</w>": 654, "land</w>": 655, "ity</w>": 656, "ett</w>": 657, "II</w>": 658, "ligger</w>": 659, "af": 660, "2016</w>": 661, "used</w>": 662, "13</w>": 663, "日</w>": 664, "2005</w>": 665, "ous</w>": 666, "ali</w>": 667, "This</w>": 668, "te": 669, "ry</w>": 670, "о</w>": 671, "ment</w>": 672, "get</w>": 673, "25</w>": 674, "т</w>": 675, "aan</w>": 676, "r</w>": 677, "go</w>": 678, "ing": 679, "werden</w>": 680, "ulan</w>": 681, "around</w>": 682, "ks</w>": 683, ".": 684, "bi": 685, "don</w>": 686, "iz": 687, "2004</w>": 688, "ang": 689, "vi": 690, "St": 691, "></w>": 692, "alla</w>": 693, "за": 694, "ische</w>": 695, "being</w>": 696, "dei</w>": 697, "tuig</w>": 698, "こと</w>": 699, "off</w>": 700, "such</w>": 701, "st</w>": 702, "during</w>": 703, "may</w>": 704, "bar": 705, "&</w>": 706, "know</w>": 707, "her": 708, "while</w>": 709, "matag</w>": 710, "pag-ulan</w>": 711, "kinabasaan</w>": 712, "kinaugahan</w>": 713, "ных</w>": 714, "foi</w>": 715, "м</w>": 716, "San</w>": 717, "ca</w>": 718, "ke</w>": 719, "17</w>": 720, "Les</w>": 721, "runt</w>": 722, "eg": 723, "<</w>": 724, "co": 725, "against</w>": 726, "Bar": 727, "three</w>": 728, "một</w>": 729, "про": 730, "sen</w>": 731, "non</w>": 732, "kahaboga</w>": 733, "gra": 734, "United</w>": 735, "John</w>": 736, "়</w>": 737, "ados</w>": 738, "ge</w>": 739, "во</w>": 740, "й</w>": 741, "sont</w>": 742, "L'</w>": 743, "V</w>": 744, "Enero</w>": 745, "formula</w>": 746, "parte</w>": 747, "más</w>": 748, "even</w>": 749, "ic": 750, "mas</w>": 751, "kilometro</w>": 752, "mon": 753, "ere</w>": 754, "ty</w>": 755, "ten": 756, "known</w>": 757, "head</w>": 758, "your</w>": 759, "year</w>": 760, "uit</w>": 761, "see</w>": 762, "lu": 763, "از</w>": 764, "του</w>": 765, "name</w>": 766, "har</w>": 767, "ви": 768, "University</w>": 769, "ant": 770, "id": 771, "для</w>": 772, "man": 773, "people</w>": 774, "ak</w>": 775, "species</w>": 776, "ów</w>": 777, "ati</w>": 778, "ita</w>": 779, "ek": 780, "American</w>": 781, "ite</w>": 782, "red</w>": 783, "gu": 784, "Con": 785, "th</w>": 786, "place</w>": 787, "în</w>": 788, "durch</w>": 789, "meter</w>": 790, "²</w>": 791, "και</w>": 792, "24</w>": 793, "са</w>": 794, "finns</w>": 795, "С": 796, "Hulyo</w>": 797, "x": 798, "ской</w>": 799, "tu": 800, "how</w>": 801, "bo": 802, "este</w>": 803, "sua</w>": 804, "mais</w>": 805, "he": 806, "ir": 807, "didn</w>": 808, "until</w>": 809, "ica</w>": 810, "中</w>": 811, "werd</w>": 812, "pi": 813, "ales</w>": 814, "о": 815, "dell'</w>": 816, "many</w>": 817, "ph": 818, "nie</w>": 819, "der": 820, "19</w>": 821, "них</w>": 822, "2017</w>": 823, "Car": 824, "ю</w>": 825, "work</w>": 826, "right</w>": 827, "ungen</w>": 828, "both</w>": 829, "và</w>": 830, "до": 831, "ins</w>": 832, "л</w>": 833, "ao</w>": 834, "mer": 835, "'": 836, "io</w>": 837, "einem</w>": 838, "ко": 839, "zijn</w>": 840, "2001</w>": 841, "sind</w>": 842, "ement</w>": 843, "ile</w>": 844, "ei</w>": 845, "due</w>": 846, "く</w>": 847, "ble</w>": 848, "100</w>": 849, "ente</w>": 850, "ise</w>": 851, "ación</w>": 852, "است</w>": 853, "ского</w>": 854, "一</w>": 855, "т": 856, "ный</w>": 857, "う</w>": 858, "ti</w>": 859, "Sh": 860, "У</w>": 861, "became</w>": 862, "я": 863, "second</w>": 864, "estado</w>": 865, "born</w>": 866, "ec": 867, "ach</w>": 868, "sub": 869, "Er": 870, "eb": 871, "của</w>": 872, "einen</w>": 873, "ist": 874, "21</w>": 875, "был</w>": 876, "lalawigan</w>": 877, "day</w>": 878, "ные</w>": 879, "still</w>": 880, "g</w>": 881, "Das</w>": 882, "kay</w>": 883, "nicht</w>": 884, "mat": 885, "area</w>": 886, "s'</w>": 887, "over": 888, "x</w>": 889, "Im</w>": 890, "team</w>": 891, "з": 892, "ings</w>": 893, "ía</w>": 894, "ik": 895, "pa</w>": 896, "со": 897, "Ab": 898, "2002</w>": 899, "gi": 900, "use</w>": 901, "но": 902, "í</w>": 903, "ре": 904, "și</w>": 905, "season</w>": 906, "Sa</w>": 907, "wird</w>": 908, "ons</w>": 909, "được</w>": 910, "again</w>": 911, "ton</w>": 912, "York</w>": 913, "2003</w>": 914, "ces</w>": 915, "ene</w>": 916, "a-": 917, "22</w>": 918, "ken</w>": 919, "ante</w>": 920, "du": 921, "Par": 922, "delen</w>": 923, "li</w>": 924, "Pro": 925, "qu'</w>": 926, "eyes</w>": 927, "ы</w>": 928, "ingår</w>": 929, "=</w>": 930, "ро": 931, "tri": 932, "because</w>": 933, "own</w>": 934, "took</w>": 935, "dal</w>": 936, "kan</w>": 937, "över</w>": 938, "Life</w>": 939, "oli</w>": 940, "0</w>": 941, "side</w>": 942, "men": 943, "og": 944, "や</w>": 945, "po</w>": 946, "пере": 947, "23</w>": 948, "pe</w>": 949, "ren": 950, "sus</w>": 951, "kwadrado</w>": 952, "ge": 953, "ни": 954, "ний</w>": 955, "L</w>": 956, "end": 957, "ow": 958, "к": 959, "ire</w>": 960, "Estados</w>": 961, "rehiyon</w>": 962, "World</w>": 963, "д": 964, "את</w>": 965, "trong</w>": 966, "ov": 967, "Los</w>": 968, "ors</w>": 969, "ert</w>": 970, "ą</w>": 971, "ou": 972, "mo": 973, "cor": 974, "ure</w>": 975, "ting</w>": 976, "same</w>": 977, "Unidos</w>": 978, "col": 979, "yuta</w>": 980, "au": 981, "А": 982, "pe": 983, "familia</w>": 984, "oder</w>": 985, "family</w>": 986, "aus": 987, "pl": 988, "won</w>": 989, "kada</w>": 990, "ies</w>": 991, "including</w>": 992, "よ</w>": 993, "和</w>": 994, "été</w>": 995, "ats</w>": 996, "din</w>": 997, "zur</w>": 998, "ok": 999, "Hapit</w>": 1000, "nalukop</w>": 1001, "Th": 1002, "О": 1003, "af</w>": 1004, "ma": 1005, "ли": 1006, "*</w>": 1007, "ran": 1008, "ä": 1009, "kasadpan</w>": 1010, "ном</w>": 1011, "dat</w>": 1012, "á": 1013, "City</w>": 1014, "dapit</w>": 1015, "amb</w>": 1016, "ele</w>": 1017, "ser": 1018, "set</w>": 1019, "fer": 1020, "Per": 1021, "bl": 1022, "über</w>": 1023, "ay</w>": 1024, "sl": 1025, "let</w>": 1026, "August</w>": 1027, "and": 1028, "Mon": 1029, "sin</w>": 1030, "called</w>": 1031, "co</w>": 1032, "zen</w>": 1033, "f</w>": 1034, "ents</w>": 1035, "She</w>": 1036, "till</w>": 1037, "'m</w>": 1038, "here</w>": 1039, "Re": 1040, "од</w>": 1041, "í": 1042, "att</w>": 1043, "away</w>": 1044, "As</w>": 1045, "National</w>": 1046, "September</w>": 1047, "nahimutangan</w>": 1048, "min": 1049, "1999</w>": 1050, "school</w>": 1051, "ga</w>": 1052, "tr": 1053, "found</w>": 1054, "sz": 1055, "tions</w>": 1056, "что</w>": 1057, "ur</w>": 1058, "going</w>": 1059, "face</w>": 1060, "berg</w>": 1061, "har": 1062, "ш": 1063, "gen": 1064, "B</w>": 1065, "den": 1066, "или</w>": 1067, "ore</w>": 1068, "ari</w>": 1069, "26</w>": 1070, "ep": 1071, "tawo</w>": 1072, "tor": 1073, "rec": 1074, "landet</w>": 1075, "$</w>": 1076, "می</w>": 1077, "very</w>": 1078, "ino</w>": 1079, "ben</w>": 1080, "28</w>": 1081, "sur": 1082, "much</w>": 1083, "so": 1084, "50</w>": 1085, "up": 1086, "seu</w>": 1087, "cre": 1088, "á</w>": 1089, "né</w>": 1090, "ner</w>": 1091, "no": 1092, "ese</w>": 1093, "genus</w>": 1094, "ger": 1095, "大": 1096, "to": 1097, "left</w>": 1098, "ella</w>": 1099, "då</w>": 1100, "fl": 1101, "Lake</w>": 1102, "these</w>": 1103, "Le": 1104, "hand</w>": 1105, "lo": 1106, "River</w>": 1107, "nella</w>": 1108, "April</w>": 1109, "ved</w>": 1110, "la": 1111, "res</w>": 1112, "者</w>": 1113, "ж": 1114, "idae</w>": 1115, "Er</w>": 1116, "که</w>": 1117, "wurden</w>": 1118, "club</w>": 1119, "ley</w>": 1120, "ny</w>": 1121, "ci</w>": 1122, "ea</w>": 1123, "sion</w>": 1124, "ь</w>": 1125, "27</w>": 1126, "ку</w>": 1127, "Ber": 1128, "ot</w>": 1129, "્</w>": 1130, "havet</w>": 1131, "States</w>": 1132, "ala</w>": 1133, "ast": 1134, "ная</w>": 1135, "ara</w>": 1136, "ard</w>": 1137, "ian</w>": 1138, "後</w>": 1139, "он</w>": 1140, "since</w>": 1141, "pas</w>": 1142, "Washington</w>": 1143, "Cor": 1144, "int": 1145, "năm</w>": 1146, "last</w>": 1147, "ance</w>": 1148, "pen": 1149, "ef": 1150, "ach": 1151, "ville</w>": 1152, "ena</w>": 1153, "Park</w>": 1154, "ngan</w>": 1155, "ah</w>": 1156, "After</w>": 1157, "有</w>": 1158, "có</w>": 1159, "ker</w>": 1160, "mu": 1161, "8": 1162, "το</w>": 1163, "wie</w>": 1164, "tar": 1165, "ev": 1166, "ely</w>": 1167, "wy": 1168, "ский</w>": 1169, "del": 1170, "ever</w>": 1171, "ні</w>": 1172, "life</w>": 1173, "lungsod</w>": 1174, "ри": 1175, "ò</w>": 1176, "Catalogue</w>": 1177, "November</w>": 1178, "ра": 1179, "make</w>": 1180, "each</w>": 1181, "o-": 1182, "м": 1183, "της</w>": 1184, "line</w>": 1185, "sol": 1186, "eh": 1187, "En": 1188, "вы": 1189, "bu": 1190, "sen": 1191, "』</w>": 1192, "too</w>": 1193, "ler</w>": 1194, "ava</w>": 1195, "alle</w>": 1196, "『</w>": 1197, "ら</w>": 1198, "ни</w>": 1199, "war": 1200, "’</w>": 1201, "delle</w>": 1202, "1998</w>": 1203, "ane</w>": 1204, "never</w>": 1205, "その</w>": 1206, "mi": 1207, "pol": 1208, "unter</w>": 1209, "ah": 1210, "met": 1211, "our</w>": 1212, "lich</w>": 1213, "ade</w>": 1214, "cer": 1215, "hij</w>": 1216, "tro": 1217, "room</w>": 1218, "ung": 1219, "pri": 1220, "ó": 1221, "tes</w>": 1222, "take</w>": 1223, "niini</w>": 1224, "ger</w>": 1225, "yn</w>": 1226, "1990</w>": 1227, "familjen</w>": 1228, "number</w>": 1229, "all": 1230, "ating</w>": 1231, "began</w>": 1232, "то": 1233, "home</w>": 1234, "ende</w>": 1235, "city</w>": 1236, "ani</w>": 1237, "me": 1238, "Det</w>": 1239, "了</w>": 1240, "released</w>": 1241, "comme</w>": 1242, "У": 1243, "played</w>": 1244, "held</w>": 1245, "ка": 1246, "isch</w>": 1247, "king</w>": 1248, "final</w>": 1249, "azione</w>": 1250, "ле": 1251, "South</w>": 1252, "tot</w>": 1253, "fi": 1254, "wor": 1255, "az": 1256, "על</w>": 1257, "ö": 1258, "29</w>": 1259, "ти": 1260, "School</w>": 1261, "ling</w>": 1262, "under": 1263, "ili</w>": 1264, "行</w>": 1265, "ro</w>": 1266, "его</w>": 1267, "reg": 1268, "г": 1269, "dass</w>": 1270, "id</w>": 1271, "several</w>": 1272, "日本</w>": 1273, "9": 1274, "ito</w>": 1275, "ill": 1276, "ship</w>": 1277, "bre": 1278, "sal": 1279, "want</w>": 1280, "ys</w>": 1281, "мо": 1282, "во": 1283, "ut</w>": 1284, "S</w>": 1285, "|</w>": 1286, "series</w>": 1287, "another</w>": 1288, "ным</w>": 1289, "pat": 1290, "adas</w>": 1291, "huvudstaden</w>": 1292, "più</w>": 1293, "के</w>": 1294, "의</w>": 1295, "fu</w>": 1296, "ri</w>": 1297, "mor": 1298, "för</w>": 1299, "ния</w>": 1300, "eng": 1301, "Qu": 1302, "state</w>": 1303, "X": 1304, "року</w>": 1305, "ho": 1306, "pay</w>": 1307, "上</w>": 1308, "ке</w>": 1309, "ab</w>": 1310, "four</w>": 1311, "3": 1312, "Mor": 1313, "pu": 1314, "sobre</w>": 1315, "ona</w>": 1316, "су</w>": 1317, "nasod.</w>": 1318, "Es</w>": 1319, "10": 1320, "ven": 1321, "ч": 1322, "31</w>": 1323, "от": 1324, "anche</w>": 1325, "7": 1326, "bes": 1327, "eren</w>": 1328, "tre": 1329, "и": 1330, "ates</w>": 1331, "ba</w>": 1332, "zi": 1333, "bat": 1334, "aw": 1335, "1996</w>": 1336, "mis": 1337, "ko</w>": 1338, "populasyon</w>": 1339, "pa": 1340, "good</w>": 1341, "ש": 1342, "40</w>": 1343, "ungs": 1344, "släktet</w>": 1345, "ants</w>": 1346, "など</w>": 1347, "fe": 1348, "ez": 1349, "е": 1350, "res": 1351, "1997</w>": 1352, "2018</w>": 1353, "Com": 1354, "ista</w>": 1355, "ont</w>": 1356, "お</w>": 1357, "Kar": 1358, "dra": 1359, "band</w>": 1360, "sono</w>": 1361, "deux</w>": 1362, "those</w>": 1363, "ence</w>": 1364, "came</w>": 1365, "lichen</w>": 1366, "ta": 1367, "Dunay</w>": 1368, "game</w>": 1369, "как</w>": 1370, "ades</w>": 1371, "think</w>": 1372, "ost": 1373, "'re</w>": 1374, "ay": 1375, "р</w>": 1376, "6": 1377, "sakop</w>": 1378, "cu": 1379, "chen</w>": 1380, "s-": 1381, "Mal": 1382, "1992</w>": 1383, "beskrevs</w>": 1384, "Årsmedeltemperaturen</w>": 1385, "population</w>": 1386, "rel": 1387, "pal": 1388, "varmaste</w>": 1389, "vol": 1390, "medeltemperaturen</w>": 1391, "kallaste</w>": 1392, "су": 1393, "France</w>": 1394, "Her": 1395, "б": 1396, "liche</w>": 1397, "kon": 1398, "ubos</w>": 1399, "п": 1400, "ма": 1401, "н</w>": 1402, "ski</w>": 1403, "underarter</w>": 1404, "mal": 1405, "Be": 1406, "out": 1407, "ska</w>": 1408, "went</w>": 1409, "aire</w>": 1410, "vor</w>": 1411, "على</w>": 1412, "For": 1413, "ern</w>": 1414, "ла</w>": 1415, "mer</w>": 1416, "house</w>": 1417, "Se": 1418, "ero</w>": 1419, "leg": 1420, "eller</w>": 1421, "nahilalakip</w>": 1422, "auf": 1423, "early</w>": 1424, "cal": 1425, "́</w>": 1426, "В": 1427, "looked</w>": 1428, "ingen</w>": 1429, "1994</w>": 1430, "ura</w>": 1431, "lui</w>": 1432, "Di": 1433, "amihanan</w>": 1434, "Inga</w>": 1435, "1995</w>": 1436, "hi</w>": 1437, "г</w>": 1438, "gar": 1439, "D</w>": 1440, "де</w>": 1441, "millimeter</w>": 1442, "art</w>": 1443, "2": 1444, "а": 1445, "El": 1446, "ein": 1447, "ical</w>": 1448, "Ne": 1449, "ب": 1450, "й": 1451, "för": 1452, "Man": 1453, "fra</w>": 1454, "この</w>": 1455, "town</w>": 1456, "lan": 1457, "dar": 1458, "ми</w>": 1459, "ns</w>": 1460, "invånare</w>": 1461, "Jahr</w>": 1462, "sw": 1463, "listade</w>": 1464, "ko": 1465, "State</w>": 1466, "ste</w>": 1467, "League</w>": 1468, "Aus": 1469, "ل": 1470, "ice</w>": 1471, "uska</w>": 1472, "ye</w>": 1473, "world</w>": 1474, "bir</w>": 1475, "ora</w>": 1476, "1991</w>": 1477, "something</w>": 1478, "thought</w>": 1479, "May</w>": 1480, "genomsnitt</w>": 1481, "Or": 1482, "ami</w>": 1483, "torraste</w>": 1484, "årsnederbörd</w>": 1485, "Genomsnittlig</w>": 1486, "regnigaste</w>": 1487, "ell": 1488, "Na</w>": 1489, "kar": 1490, "ę</w>": 1491, "ik</w>": 1492, "sel": 1493, "na": 1494, "이</w>": 1495, "つ</w>": 1496, "kabanay</w>": 1497, "small</w>": 1498, "ма</w>": 1499, "ck": 1500, "aj": 1501, "Bo": 1502, "januari</w>": 1503, "mas": 1504, "ques</w>": 1505, "kvadratkilometer</w>": 1506, "bas": 1507, "esta</w>": 1508, "Het</w>": 1509, "br": 1510, "metro</w>": 1511, "por": 1512, "ative</w>": 1513, "following</w>": 1514, "ли</w>": 1515, "fin": 1516, "го": 1517, "ud": 1518, "و": 1519, "ль": 1520, "kaj</w>": 1521, "ku</w>": 1522, "less</w>": 1523, "water</w>": 1524, "got</w>": 1525, "ok</w>": 1526, "Am": 1527, "asked</w>": 1528, "British</w>": 1529, "hini</w>": 1530, "ell</w>": 1531, "И": 1532, "Una</w>": 1533, "ton": 1534, "ked</w>": 1535, "old</w>": 1536, "sam": 1537, "án</w>": 1538, "vom</w>": 1539, "Creek</w>": 1540, "1993</w>": 1541, "station</w>": 1542, "Su": 1543, "ón</w>": 1544, "ди": 1545, "They</w>": 1546, "antes</w>": 1547, "sidlakan</w>": 1548, "group</w>": 1549, "mel": 1550, "д</w>": 1551, "few</w>": 1552, "bra": 1553, "ong</w>": 1554, "little</w>": 1555, "ва</w>": 1556, "ess</w>": 1557, "local</w>": 1558, "komon</w>": 1559, "talagsaon</w>": 1560, "ul</w>": 1561, "along</w>": 1562, "Cerro</w>": 1563, "є</w>": 1564, "gel": 1565, "Col": 1566, "့</w>": 1567, "former</w>": 1568, "waren</w>": 1569, "based</w>": 1570, "cur": 1571, "을</w>": 1572, "father</w>": 1573, "部</w>": 1574, "ien</w>": 1575, "sil": 1576, "durante</w>": 1577, "К": 1578, "we": 1579, "ty": 1580, "iz</w>": 1581, "他</w>": 1582, "care</w>": 1583, "ico</w>": 1584, "dari</w>": 1585, "що</w>": 1586, "osa</w>": 1587, "ju": 1588, "subspecies</w>": 1589, "hi": 1590, "Har": 1591, "ics</w>": 1592, "tive</w>": 1593, "village</w>": 1594, "hat</w>": 1595, "га</w>": 1596, "られ</w>": 1597, "На</w>": 1598, "ве": 1599, "gli</w>": 1600, "ais</w>": 1601, "ти</w>": 1602, "U</w>": 1603, "North</w>": 1604, "ため</w>": 1605, "ol</w>": 1606, "noch</w>": 1607, "form</w>": 1608, "kahenera</w>": 1609, "var": 1610, "ü": 1611, "nom</w>": 1612, "tra</w>": 1613, "ées</w>": 1614, "大</w>": 1615, "system</w>": 1616, "Espesye</w>": 1617, "pan": 1618, "vor": 1619, "این</w>": 1620, "pada</w>": 1621, "tu</w>": 1622, "March</w>": 1623, "vis": 1624, "oper": 1625, "х</w>": 1626, "dia</w>": 1627, "км</w>": 1628, "wala</w>": 1629, "kinadul-ang</w>": 1630, "nalista</w>": 1631, "ст": 1632, "show</w>": 1633, "ação</w>": 1634, "dakong</w>": 1635, "ono</w>": 1636, "June</w>": 1637, "gihulagway</w>": 1638, "cia</w>": 1639, "sa": 1640, "His</w>": 1641, "sin": 1642, "4": 1643, "single</w>": 1644, "star": 1645, "ry": 1646, "1989</w>": 1647, "nur</w>": 1648, "val": 1649, "ness</w>": 1650, "ki": 1651, "Agosto</w>": 1652, "niya</w>": 1653, "music</w>": 1654, "hal": 1655, "ib": 1656, "total</w>": 1657, "1980</w>": 1658, "juli</w>": 1659, "市</w>": 1660, "ew": 1661, "том</w>": 1662, "ginhulagway</w>": 1663, "то</w>": 1664, "Nel</w>": 1665, "fre": 1666, "Г": 1667, "Gu": 1668, "siak</w>": 1669, "Suba</w>": 1670, "lat</w>": 1671, "uno</w>": 1672, "Tra": 1673, "5": 1674, "far": 1675, "karon</w>": 1676, "dels</w>": 1677, "Pagka</w>": 1678, "look</w>": 1679, "này</w>": 1680, "ю": 1681, "July</w>": 1682, "January</w>": 1683, "де": 1684, "ding</w>": 1685, "Sal": 1686, "에</w>": 1687, "П": 1688, "hu": 1689, "ప</w>": 1690, "1945</w>": 1691, "air</w>": 1692, "ו": 1693, "ila</w>": 1694, "body</w>": 1695, "tur": 1696, "ł": 1697, "October</w>": 1698, "mit": 1699, "ло": 1700, "ру": 1701, "Waray</w>": 1702, "nakalista</w>": 1703, "next</w>": 1704, "dunay</w>": 1705, "ind": 1706, "ку": 1707, "ба": 1708, "gihabogon</w>": 1709, "kinahabogang</w>": 1710, "Q": 1711, "н": 1712, "lin": 1713, "gen</w>": 1714, "named</w>": 1715, "forma</w>": 1716, "при</w>": 1717, "naam</w>": 1718, "ion</w>": 1719, "There</w>": 1720, "dan": 1721, "های</w>": 1722, "field</w>": 1723, "aria</w>": 1724, "Paris</w>": 1725, "bur": 1726, "ное</w>": 1727, "large</w>": 1728, "та": 1729, "ции</w>": 1730, "fait</w>": 1731, "ions</w>": 1732, "را</w>": 1733, "iv": 1734, "бо": 1735, "Co": 1736, "ми": 1737, "E</w>": 1738, "patag</w>": 1739, "గ</w>": 1740, "cu</w>": 1741, "vo": 1742, "Vor": 1743, "located</w>": 1744, "nu</w>": 1745, "Gra": 1746, "familie</w>": 1747, "William</w>": 1748, "all'</w>": 1749, "kl": 1750, "tal": 1751, "ker": 1752, "seiner</w>": 1753, "bal": 1754, "ф": 1755, "London</w>": 1756, "cat": 1757, "rat": 1758, "West</w>": 1759, "served</w>": 1760, "地</w>": 1761, "Mo": 1762, "ère</w>": 1763, "At</w>": 1764, "ban</w>": 1765, "started</w>": 1766, "ette</w>": 1767, "let": 1768, "은</w>": 1769, "sowie</w>": 1770, "habagatan</w>": 1771, "R</w>": 1772, "hol": 1773, "company</w>": 1774, "Д": 1775, "soort</w>": 1776, "nar": 1777, "ip": 1778, "му</w>": 1779, "'ll</w>": 1780, "名</w>": 1781, "Han</w>": 1782, "раз": 1783, "Ro": 1784, "ve": 1785, "ме": 1786, "De": 1787, "ets</w>": 1788, "об": 1789, "high</w>": 1790, "hel": 1791, "night</w>": 1792, "eri</w>": 1793, "aba</w>": 1794, "ils</w>": 1795, "gro": 1796, "aceae</w>": 1797, "å</w>": 1798, "sing</w>": 1799, "point</w>": 1800, "Ex": 1801, "War</w>": 1802, "ва": 1803, "aber</w>": 1804, "các</w>": 1805, "sure</w>": 1806, "1988</w>": 1807, "wa</w>": 1808, "か</w>": 1809, "public</w>": 1810, "ck</w>": 1811, "+</w>": 1812, "60</w>": 1813, "Nach</w>": 1814, "ban": 1815, "第</w>": 1816, "br</w>": 1817, "ner": 1818, "stra": 1819, "ij": 1820, "car</w>": 1821, "ну</w>": 1822, "ο</w>": 1823, "T</w>": 1824, "III</w>": 1825, "š": 1826, "illa</w>": 1827, "chi": 1828, "every</w>": 1829, "Bel": 1830, "hor": 1831, "ov</w>": 1832, "moved</w>": 1833, "of": 1834, "jest</w>": 1835, "say</w>": 1836, "ú": 1837, "estas</w>": 1838, "την</w>": 1839, "Canada</w>": 1840, "ier": 1841, "ola</w>": 1842, "sein</w>": 1843, "Т": 1844, "họ</w>": 1845, "1970</w>": 1846, "ha": 1847, "mai</w>": 1848, "ste": 1849, "December</w>": 1850, "built</w>": 1851, "ete</w>": 1852, "why</w>": 1853, "bi</w>": 1854, "·</w>": 1855, "ka": 1856, "ción</w>": 1857, "ji</w>": 1858, "song</w>": 1859, "can": 1860, "without</w>": 1861, "ischer</w>": 1862, "jako</w>": 1863, "ت": 1864, "general</w>": 1865, "land": 1866, "ub": 1867, "Mer": 1868, "में</w>": 1869, "ds</w>": 1870, "го</w>": 1871, "hatte</w>": 1872, "х": 1873, "ใน</w>": 1874, "using</w>": 1875, "dem": 1876, "uk": 1877, "should</w>": 1878, "dengan</w>": 1879, "seine</w>": 1880, "Mc": 1881, "endo</w>": 1882, "प</w>": 1883, "ii</w>": 1884, "need</w>": 1885, "sar": 1886, "По": 1887, "bro": 1888, "ky</w>": 1889, "ela</w>": 1890, "wasn</w>": 1891, "member</w>": 1892, "suo</w>": 1893, "ي": 1894, "ל": 1895, "turned</w>": 1896, "pod": 1897, "си": 1898, "though</w>": 1899, "ском</w>": 1900, "пре": 1901, "ff": 1902, "ey</w>": 1903, "па": 1904, "über": 1905, "años</w>": 1906, "George</w>": 1907, "via</w>": 1908, "Cal": 1909, "Bal": 1910, "ā": 1911, "within</w>": 1912, "Mat": 1913, "government</w>": 1914, "ア": 1915, "rit": 1916, "ran</w>": 1917, "Pol": 1918, "n'</w>": 1919, "building</w>": 1920, "aj</w>": 1921, "ae</w>": 1922, "if": 1923, "Saint-": 1924, "century</w>": 1925, "të</w>": 1926, "Jahre</w>": 1927, "200</w>": 1928, "те": 1929, "ue</w>": 1930, "knew</w>": 1931, "P</w>": 1932, "ет</w>": 1933, "top</w>": 1934, "ensis</w>": 1935, "fo": 1936, "年)</w>": 1937, "felt</w>": 1938, "cette</w>": 1939, "light</w>": 1940, "once</w>": 1941, "wanted</w>": 1942, "те</w>": 1943, "don": 1944, "リ": 1945, "meg": 1946, "James</w>": 1947, "лі": 1948, "usa</w>": 1949, "ama</w>": 1950, "1987</w>": 1951, "anti": 1952, "sig": 1953, "1986</w>": 1954, "ник</w>": 1955, "przez</w>": 1956, "do": 1957, "pero</w>": 1958, "five</w>": 1959, "best</w>": 1960, "Paul</w>": 1961, "из": 1962, "Ma": 1963, "出</w>": 1964, "ル": 1965, "ce": 1966, "College</w>": 1967, "han": 1968, "sor": 1969, "Se</w>": 1970, "son": 1971, "わ</w>": 1972, "died</w>": 1973, "ним</w>": 1974, "sia</w>": 1975, "р": 1976, "put</w>": 1977, "més</w>": 1978, "mi</w>": 1979, "ских</w>": 1980, "However</w>": 1981, "position</w>": 1982, "gr": 1983, "为</w>": 1984, "dalla</w>": 1985, "ها</w>": 1986, "ches</w>": 1987, "front</w>": 1988, "M</w>": 1989, "ă</w>": 1990, "ido</w>": 1991, "1": 1992, "cap": 1993, "kabungtoran</w>": 1994, "ima</w>": 1995, "ин": 1996, "С</w>": 1997, "Gar": 1998, "pra": 1999, "מ": 2000, "ion": 2001, "base</w>": 2002, "pr": 2003, "bel": 2004, "да": 2005, "إلى</w>": 2006, "Bi": 2007, "1984</w>": 2008, "ines</w>": 2009, "kor": 2010, "ute</w>": 2011, "ku": 2012, "mé": 2013, "received</w>": 2014, "家</w>": 2015, "же</w>": 2016, "і": 2017, "ase</w>": 2018, "loài</w>": 2019, "cas": 2020, "ь": 2021, "m.</w>": 2022, "inc": 2023, "ali": 2024, "12": 2025, "са": 2026, "..</w>": 2027, "No</w>": 2028, "tan": 2029, "D.C.</w>": 2030, "David</w>": 2031, "death</w>": 2032, "go": 2033, "ní</w>": 2034, "ich": 2035, "Val": 2036, "original</w>": 2037, "erte</w>": 2038, "1985</w>": 2039, "fel": 2040, "tel": 2041, "cho</w>": 2042, "yl": 2043, "है</w>": 2044, "roz": 2045, "amente</w>": 2046, "kal": 2047, "Lu": 2048, "eerst</w>": 2049, "Elle</w>": 2050, "sten</w>": 2051, "Robert</w>": 2052, "ori</w>": 2053, "gre": 2054, "nahimutang</w>": 2055, "International</w>": 2056, "pel": 2057, "1.</w>": 2058, "F</w>": 2059, "post": 2060, "è": 2061, "ern": 2062, "eur</w>": 2063, "kh": 2064, "saw</w>": 2065, "national</w>": 2066, "inn": 2067, "gl": 2068, "main</w>": 2069, "ook</w>": 2070, "子</w>": 2071, "att": 2072, "open</w>": 2073, "major</w>": 2074, "different</w>": 2075, "For</w>": 2076, "一": 2077, "ス": 2078, "serie</w>": 2079, "ства</w>": 2080, "play</w>": 2081, "zwei</w>": 2082, "kondado</w>": 2083, "また</w>": 2084, "sou": 2085, "tre</w>": 2086, "ние</w>": 2087, "από</w>": 2088, "service</w>": 2089, "ator</w>": 2090, "ism</w>": 2091, "bor": 2092, "Б": 2093, "М": 2094, "sentro</w>": 2095, "よう</w>": 2096, "himself</w>": 2097, "G</w>": 2098, "Sie</w>": 2099, "February</w>": 2100, "ging</w>": 2101, "ped</w>": 2102, "fil": 2103, "Ge": 2104, "behind</w>": 2105, "cui</w>": 2106, "Kon": 2107, "adalah</w>": 2108, "entes</w>": 2109, "ario</w>": 2110, "District</w>": 2111, "マ": 2112, "ched</w>": 2113, "ris": 2114, "أ": 2115, "wo": 2116, "N</w>": 2117, "ador</w>": 2118, "Mu": 2119, "prima</w>": 2120, "ская</w>": 2121, "nog</w>": 2122, "oj</w>": 2123, "ster</w>": 2124, "al-": 2125, "1960</w>": 2126, "ari": 2127, "bil": 2128, "со</w>": 2129, "ної</w>": 2130, "children</w>": 2131, "1982</w>": 2132, "ў</w>": 2133, "include</w>": 2134, "book</w>": 2135, "также</w>": 2136, "Tor": 2137, "ben": 2138, "ที่</w>": 2139, "чи": 2140, "Bu": 2141, "loc": 2142, "É": 2143, "pré": 2144, "X</w>": 2145, "500</w>": 2146, "solo</w>": 2147, "ную</w>": 2148, "pas": 2149, "пи": 2150, "г.</w>": 2151, "л": 2152, "η</w>": 2153, "seen</w>": 2154, "1983</w>": 2155, "stri": 2156, "members</w>": 2157, "ters</w>": 2158, "emb": 2159, "ду": 2160, "dit</w>": 2161, "Un": 2162, "ann": 2163, "ars</w>": 2164, "fied</w>": 2165, "1944</w>": 2166, "від</w>": 2167, "ned</w>": 2168, "together</w>": 2169, "tor</w>": 2170, "ん</w>": 2171, "Charles</w>": 2172, "blev</w>": 2173, "unter": 2174, "ones</w>": 2175, "ros</w>": 2176, "Fre": 2177, "1972</w>": 2178, "General</w>": 2179, "ug": 2180, "Ser": 2181, "国</w>": 2182, "help</w>": 2183, "ken": 2184, "Am</w>": 2185, "Ка": 2186, "1975</w>": 2187, "Santa</w>": 2188, "eines</w>": 2189, "č": 2190, "Tri": 2191, "oni</w>": 2192, "Ad": 2193, "not": 2194, "1979</w>": 2195, "dalam</w>": 2196, "ders</w>": 2197, "vers</w>": 2198, "dr": 2199, "told</w>": 2200, "anni</w>": 2201, "Pal": 2202, "san": 2203, "се": 2204, "tig": 2205, "les": 2206, "año</w>": 2207, "所</w>": 2208, "כ": 2209, "ige</w>": 2210, "была</w>": 2211, "ف": 2212, "ды</w>": 2213, "fra": 2214, "TV</w>": 2215, "anos</w>": 2216, "stand</w>": 2217, "mother</w>": 2218, "もの</w>": 2219, "fu": 2220, "با</w>": 2221, "Ein": 2222, "far</w>": 2223, "hands</w>": 2224, "ich</w>": 2225, "nej</w>": 2226, "til": 2227, "también</w>": 2228, "rol": 2229, "ан": 2230, "enc": 2231, "yn": 2232, "ny": 2233, "aren</w>": 2234, "St.</w>": 2235, "1981</w>": 2236, "gave</w>": 2237, "ster": 2238, "était</w>": 2239, "13": 2240, "Po": 2241, "под": 2242, "où</w>": 2243, "hasta</w>": 2244, "worden</w>": 2245, "ow</w>": 2246, "aron</w>": 2247, "1976</w>": 2248, "apan</w>": 2249, "nes</w>": 2250, "bij</w>": 2251, "aut": 2252, "き</w>": 2253, "sta</w>": 2254, "لل": 2255, "Pebrero</w>": 2256, "och": 2257, "voice</w>": 2258, "Е": 2259, "ke": 2260, "1974</w>": 2261, "da": 2262, "Trakten</w>": 2263, "len</w>": 2264, "Hunyo</w>": 2265, "char": 2266, "Island</w>": 2267, "lat": 2268, "district</w>": 2269, "fe</w>": 2270, "Ко": 2271, "cit": 2272, "across</w>": 2273, "με</w>": 2274, "having</w>": 2275, "1968</w>": 2276, "ber</w>": 2277, "site</w>": 2278, "Bur": 2279, "sy": 2280, "dy</w>": 2281, "enti</w>": 2282, "vid</w>": 2283, "1978</w>": 2284, "1973</w>": 2285, "near</w>": 2286, "ho</w>": 2287, "oraz</w>": 2288, "ez</w>": 2289, "leur</w>": 2290, "'ve</w>": 2291, "80</w>": 2292, "six</w>": 2293, "ech": 2294, "tell</w>": 2295, "ков</w>": 2296, "y-": 2297, "During</w>": 2298, "published</w>": 2299, "へ</w>": 2300, "untuk</w>": 2301, "-S": 2302, "und": 2303, "zwischen</w>": 2304, "en-": 2305, "dont</w>": 2306, "ple": 2307, "州</w>": 2308, "Un</w>": 2309, "dec": 2310, "等</w>": 2311, "grande</w>": 2312, "er-": 2313, "были</w>": 2314, "ng": 2315, "bar</w>": 2316, "Thomas</w>": 2317, "really</w>": 2318, "nombre</w>": 2319, "),</w>": 2320, "One</w>": 2321, "j</w>": 2322, "often</w>": 2323, "bed</w>": 2324, "ス</w>": 2325, "desde</w>": 2326, "cz": 2327, "ziren</w>": 2328, "Al</w>": 2329, "être</w>": 2330, "ла": 2331, "ati": 2332, "ong": 2333, "ig</w>": 2334, "California</w>": 2335, "用</w>": 2336, "че": 2337, "ны</w>": 2338, "Li": 2339, "まで</w>": 2340, "England</w>": 2341, "Club</w>": 2342, "times</w>": 2343, "ici</w>": 2344, "ité</w>": 2345, "ras</w>": 2346, "Tur": 2347, "ves</w>": 2348, "ů</w>": 2349, "super": 2350, "days</w>": 2351, "fer</w>": 2352, "football</w>": 2353, "late</w>": 2354, "ej": 2355, "ba": 2356, "iti</w>": 2357, "Ger": 2358, "vel": 2359, "lig": 2360, "power</w>": 2361, "wetenschappelijke</w>": 2362, "find</w>": 2363, "opened</w>": 2364, "gepubliceerd</w>": 2365, "nen</w>": 2366, "Ac": 2367, "และ</w>": 2368, "mes": 2369, "Jahren</w>": 2370, "kini</w>": 2371, "ron</w>": 2372, "被</w>": 2373, "時</w>": 2374, "га": 2375, "ait</w>": 2376, "ver</w>": 2377, "ille</w>": 2378, "мі": 2379, "wi": 2380, "Em</w>": 2381, "moment</w>": 2382, "Pi": 2383, "Pre": 2384, "ng</w>": 2385, "ier</w>": 2386, "было</w>": 2387, "cy</w>": 2388, "1977</w>": 2389, "nos</w>": 2390, "given</w>": 2391, "igen</w>": 2392, "t-": 2393, "wer": 2394, "making</w>": 2395, "kom": 2396, "enough</w>": 2397, "ты</w>": 2398, "US</w>": 2399, "З": 2400, "egy</w>": 2401, "ить</w>": 2402, "val</w>": 2403, "Cup</w>": 2404, "ee</w>": 2405, "mann</w>": 2406, "ther": 2407, "råder</w>": 2408, "sent</w>": 2409, "chi</w>": 2410, "geldig</w>": 2411, "Ф": 2412, "多</w>": 2413, "ges</w>": 2414, "1971</w>": 2415, "ron": 2416, "Disyembre</w>": 2417, "important</w>": 2418, "provinsen</w>": 2419, "Ш": 2420, "hadton</w>": 2421, "word</w>": 2422, "lar": 2423, "ego</w>": 2424, "FC</w>": 2425, "Hu": 2426, "Me": 2427, "gener": 2428, "ен": 2429, "third</w>": 2430, "ció</w>": 2431, "ров</w>": 2432, "order</w>": 2433, "dieser</w>": 2434, "người</w>": 2435, "included</w>": 2436, "Hill</w>": 2437, "hon": 2438, "love</w>": 2439, "hand": 2440, "ב": 2441, "下</w>": 2442, "45</w>": 2443, "ores</w>": 2444, "sy</w>": 2445, "oh": 2446, "ms</w>": 2447, "0": 2448, "zione</w>": 2449, "women</w>": 2450, "Las</w>": 2451, "Ter": 2452, "naar</w>": 2453, "1941</w>": 2454, "性</w>": 2455, "1969</w>": 2456, "thing</w>": 2457, "сто": 2458, "Australia</w>": 2459, "以</w>": 2460, "House</w>": 2461, "ство</w>": 2462, "ц": 2463, "ського</w>": 2464, "э": 2465, "stato</w>": 2466, "kan": 2467, "vin": 2468, "enti": 2469, "mag": 2470, "1940</w>": 2471, "ał</w>": 2472, "Ober": 2473, "tom": 2474, "match</w>": 2475, "ão</w>": 2476, "Ph": 2477, "partir</w>": 2478, "eu": 2479, "الم": 2480, "might</w>": 2481, "Sol": 2482, "ком</w>": 2483, "esa</w>": 2484, "sm": 2485, "1939</w>": 2486, "mu</w>": 2487, "nych</w>": 2488, "中": 2489, "Sam": 2490, "zi</w>": 2491, "время</w>": 2492, "form": 2493, "adtong</w>": 2494, "million</w>": 2495, "control</w>": 2496, "ными</w>": 2497, "1967</w>": 2498, "record</w>": 2499, "fut</w>": 2500, "Peter</w>": 2501, "ко</w>": 2502, "Mac": 2503, "zo</w>": 2504, "beg": 2505, "version</w>": 2506, "wo</w>": 2507, "disc": 2508, "cro": 2509, "Maria</w>": 2510, "case</w>": 2511, "jo": 2512, "жи": 2513, "vari": 2514, "même</w>": 2515, "French</w>": 2516, "Kal": 2517, "70</w>": 2518, "Michael</w>": 2519, "Sar": 2520, "ria</w>": 2521, "сти": 2522, "Р": 2523, "nik</w>": 2524, "run</w>": 2525, "học</w>": 2526, "q": 2527, "ellen</w>": 2528, "len": 2529, "cher</w>": 2530, "ра</w>": 2531, "1950</w>": 2532, "As": 2533, "gran</w>": 2534, "wh": 2535, "gegen</w>": 2536, "pod</w>": 2537, "après</w>": 2538, "godine</w>": 2539, "tw": 2540, "線</w>": 2541, "medyo</w>": 2542, "ac</w>": 2543, "35</w>": 2544, "log": 2545, "must</w>": 2546, "си</w>": 2547, "Film</w>": 2548, "Bra": 2549, "və</w>": 2550, "pon": 2551, "cel": 2552, "Ang": 2553, "English</w>": 2554, "는</w>": 2555, "ロ": 2556, "dom": 2557, "вер": 2558, "Far": 2559, "tion": 2560, "lost</w>": 2561, "бу": 2562, "USA</w>": 2563, "kin</w>": 2564, "イ": 2565, "1964</w>": 2566, "India</w>": 2567, "continued</w>": 2568, "cm</w>": 2569, "K</w>": 2570, "sive</w>": 2571, "lie</w>": 2572, "1,": 2573, "位</w>": 2574, "године</w>": 2575, "ž": 2576, "Mas": 2577, "ret": 2578, "ки": 2579, "ё": 2580, "va": 2581, "enden</w>": 2582, "化</w>": 2583, "90</w>": 2584, "Reg": 2585, "tin": 2586, "red": 2587, "Sa": 2588, "jo</w>": 2589, "нии</w>": 2590, "ced</w>": 2591, "山</w>": 2592, "become</w>": 2593, "country</w>": 2594, "sig</w>": 2595, "oz": 2596, "kol": 2597, "couldn</w>": 2598, "ві": 2599, "ly": 2600, "הוא</w>": 2601, "会</w>": 2602, "وال": 2603, "ole</w>": 2604, "primer</w>": 2605, "ção</w>": 2606, "aring</w>": 2607, "When</w>": 2608, "п</w>": 2609, "тов</w>": 2610, "U.S.</w>": 2611, "sel</w>": 2612, "カ": 2613, "ral</w>": 2614, "ently</w>": 2615, "ть</w>": 2616, "pla": 2617, "set": 2618, "närheten</w>": 2619, "år</w>": 2620, "Si": 2621, "Grand</w>": 2622, "不</w>": 2623, "está</w>": 2624, "000</w>": 2625, "県</w>": 2626, "dor": 2627, "fin</w>": 2628, "ク": 2629, "یک</w>": 2630, "зо": 2631, "cl": 2632, "1943</w>": 2633, "ля": 2634, "1965</w>": 2635, "ff</w>": 2636, "ive</w>": 2637, "appeared</w>": 2638, "Bor": 2639, "kel": 2640, "ania</w>": 2641, "ments</w>": 2642, "kt</w>": 2643, "give</w>": 2644, "ности</w>": 2645, "fa": 2646, "ở</w>": 2647, "ology</w>": 2648, "Br": 2649, "pul": 2650, "rat</w>": 2651, "đầu</w>": 2652, "kilometer</w>": 2653, "production</w>": 2654, "nome</w>": 2655, "lar</w>": 2656, "aciones</w>": 2657, "ily</w>": 2658, "Land": 2659, "zu": 2660, "Vi": 2661, "ey": 2662, "ham</w>": 2663, "indi": 2664, "Ru": 2665, "uz": 2666, "always</w>": 2667, "uses</w>": 2668, "King</w>": 2669, "د": 2670, "ста": 2671, "bu</w>": 2672, "je": 2673, "East</w>": 2674, "ide</w>": 2675, "donde</w>": 2676, "uit": 2677, "Du": 2678, "ك": 2679, "mo</w>": 2680, "worked</w>": 2681, "前</w>": 2682, "gamay</w>": 2683, "hard</w>": 2684, "list": 2685, "Bre": 2686, "än": 2687, "ze": 2688, "ació</w>": 2689, "pt": 2690, "elles</w>": 2691, "Runt</w>": 2692, "contra</w>": 2693, "נ": 2694, "స</w>": 2695, "America</w>": 2696, "ска</w>": 2697, "dam": 2698, "vi</w>": 2699, "ua</w>": 2700, "asi</w>": 2701, "ст</w>": 2702, "almost</w>": 2703, "1966</w>": 2704, "bol": 2705, "Sp": 2706, "net</w>": 2707, "rock</w>": 2708, "而</w>": 2709, "degli</w>": 2710, "gest": 2711, "田</w>": 2712, "ll": 2713, "stat": 2714, "ному</w>": 2715, "cul": 2716, "sous</w>": 2717, "次</w>": 2718, "Als</w>": 2719, "Berlin</w>": 2720, "sem": 2721, "bit": 2722, "law</w>": 2723, "inst": 2724, "ば</w>": 2725, "1942</w>": 2726, "half</w>": 2727, "tres</w>": 2728, "би": 2729, "woman</w>": 2730, "gri": 2731, "Kor": 2732, "pet": 2733, "—</w>": 2734, "nov": 2735, "fac": 2736, "nes": 2737, "為": 2738, "也</w>": 2739, "Mi": 2740, "black</w>": 2741, "Kom": 2742, "ake</w>": 2743, "Europa</w>": 2744, "principal</w>": 2745, "ello</w>": 2746, "habagatan-kasadpan</w>": 2747, "Lac</w>": 2748, "H</w>": 2749, "pun": 2750, "На": 2751, "aussi</w>": 2752, "Stadt</w>": 2753, "things</w>": 2754, "tubig-saluran</w>": 2755, "rest": 2756, "trans": 2757, "ts": 2758, "ish</w>": 2759, "32</w>": 2760, "amihanan-kasadpan</w>": 2761, "cou": 2762, "роз": 2763, "เป็น</w>": 2764, "ту": 2765, "ris</w>": 2766, "Royal</w>": 2767, "sis</w>": 2768, "enne</w>": 2769, "大学</w>": 2770, "να</w>": 2771, "65</w>": 2772, "한</w>": 2773, "đã</w>": 2774, "Zeit</w>": 2775, "jedoch</w>": 2776, "não</w>": 2777, "geb": 2778, "cht</w>": 2779, "ラ": 2780, "хо": 2781, "oma</w>": 2782, "nor": 2783, "ç": 2784, "fa</w>": 2785, "également</w>": 2786, "plat": 2787, "fire</w>": 2788, "Union</w>": 2789, "Inter": 2790, "ori": 2791, "По</w>": 2792, "Dar": 2793, "alors</w>": 2794, "али</w>": 2795, "Po</w>": 2796, "appar": 2797, "ของ</w>": 2798, "dro": 2799, "career</w>": 2800, "Х": 2801, "högsta</w>": 2802, "Wal": 2803, "rig": 2804, "however</w>": 2805, "Pat": 2806, "1962</w>": 2807, "adi": 2808, "với</w>": 2809, "wood</w>": 2810, "amento</w>": 2811, "works</w>": 2812, "ют</w>": 2813, "ill</w>": 2814, "под</w>": 2815, "better</w>": 2816, "Te": 2817, "seit</w>": 2818, "lia</w>": 2819, "Dam</w>": 2820, "ersten</w>": 2821, "ски</w>": 2822, "ida</w>": 2823, "ان</w>": 2824, "returned</w>": 2825, "Auf": 2826, "hat": 2827, "内</w>": 2828, "ps</w>": 2829, "anything</w>": 2830, "d-": 2831, "German</w>": 2832, "pped</w>": 2833, "bet": 2834, "mes</w>": 2835, "premier</w>": 2836, "1963</w>": 2837, "close</w>": 2838, "せ</w>": 2839, "organiz": 2840, "ła</w>": 2841, "Gi": 2842, "ン</w>": 2843, "1948</w>": 2844, "dy": 2845, "ту</w>": 2846, "Э": 2847, "style</w>": 2848, "ides</w>": 2849, "punkten</w>": 2850, "nothing</w>": 2851, "ova</w>": 2852, "vo</w>": 2853, "course</w>": 2854, "Min": 2855, "ud</w>": 2856, "зи": 2857, "A.</w>": 2858, "rin": 2859, "ش": 2860, "ose</w>": 2861, "cha</w>": 2862, "pur": 2863, "ture</w>": 2864, "history</w>": 2865, "eni</w>": 2866, "dopo</w>": 2867, "Tar": 2868, "бе": 2869, "my": 2870, "road</w>": 2871, "coun": 2872, "eri": 2873, "ż": 2874, "married</w>": 2875, "nia</w>": 2876, "ace</w>": 2877, "dre": 2878, "ن": 2879, "alt": 2880, "م": 2881, "wa": 2882, "uto</w>": 2883, "Division</w>": 2884, "ties</w>": 2885, "Europe</w>": 2886, "fal": 2887, "エ": 2888, "ford</w>": 2889, "autres</w>": 2890, "Met": 2891, "ske</w>": 2892, "1946</w>": 2893, "dig": 2894, "som": 2895, "mind</w>": 2896, "س": 2897, "Az</w>": 2898, "す</w>": 2899, "volt</w>": 2900, "i-": 2901, "ром</w>": 2902, "ainsi</w>": 2903, "но-": 2904, "west</w>": 2905, "vy": 2906, "ili": 2907, "1920</w>": 2908, "feel</w>": 2909, "ج": 2910, "van": 2911, "Louis</w>": 2912, "ain</w>": 2913, "vez</w>": 2914, "ule</w>": 2915, "ira</w>": 2916, "Street</w>": 2917, "1956</w>": 2918, "win</w>": 2919, "sk</w>": 2920, "cam": 2921, "dri": 2922, "nu": 2923, "games</w>": 2924, "taken</w>": 2925, "dic": 2926, "ł</w>": 2927, "Bas": 2928, "ン": 2929, "inen</w>": 2930, "ні": 2931, "seus</w>": 2932, "ги": 2933, "як</w>": 2934, "Lo": 2935, "në</w>": 2936, "bo</w>": 2937, "sions</w>": 2938, "low</w>": 2939, "की</w>": 2940, "support</w>": 2941, "arch": 2942, "pro</w>": 2943, "mar</w>": 2944, "fine</w>": 2945, "nat": 2946, "among</w>": 2947, "ide": 2948, "cada</w>": 2949, "シ": 2950, "1958</w>": 2951, "does</w>": 2952, "gew": 2953, "social</w>": 2954, "idea</w>": 2955, "region</w>": 2956, "plan</w>": 2957, "vic": 2958, "augusti</w>": 2959, "ages</w>": 2960, "1961</w>": 2961, "live</w>": 2962, "He": 2963, "щ": 2964, "already</w>": 2965, "established</w>": 2966, "Mel": 2967, "yt": 2968, "Can": 2969, "nem</w>": 2970, "生</w>": 2971, "inside</w>": 2972, "real</w>": 2973, "är": 2974, "looking</w>": 2975, "स</w>": 2976, "round</w>": 2977, "others</w>": 2978, "ako</w>": 2979, "hold</w>": 2980, "их</w>": 2981, "ي</w>": 2982, "China</w>": 2983, "ges": 2984, "ド": 2985, "lit": 2986, "1.": 2987, "international</w>": 2988, "1918</w>": 2989, "cie</w>": 2990, "med": 2991, "році</w>": 2992, "the": 2993, "長</w>": 2994, "ק": 2995, "آن</w>": 2996, "period</w>": 2997, "art": 2998, "ust": 2999, "top": 3000, "sum": 3001, "და</w>": 3002, "kat": 3003, "guerra</w>": 3004, "0,": 3005, "Unter": 3006, "gesch": 3007, "ć</w>": 3008, "enn": 3009, "ін": 3010, "uje</w>": 3011, "ord": 3012, "Pri": 3013, "został</w>": 3014, "fol": 3015, "1938</w>": 3016, "Kat": 3017, "Ri": 3018, "indic": 3019, "cio</w>": 3020, "onder</w>": 3021, "Z</w>": 3022, "ast</w>": 3023, "Hol": 3024, "lic": 3025, "stor": 3026, "video</w>": 3027, "ー": 3028, "etwa</w>": 3029, "vit": 3030, "ца</w>": 3031, "에서</w>": 3032, "Point</w>": 3033, "ered</w>": 3034, "mut": 3035, "High</w>": 3036, "level</w>": 3037, "Kūh-e</w>": 3038, "great</w>": 3039, "1930</w>": 3040, "program</w>": 3041, "tahun</w>": 3042, "Est": 3043, "え</w>": 3044, "이": 3045, "これ</w>": 3046, "мен": 3047, "role</w>": 3048, "joined</w>": 3049, "popular</w>": 3050, "ren</w>": 3051, "від": 3052, "م</w>": 3053, "co-": 3054, "14": 3055, "juni</w>": 3056, "munisipyo</w>": 3057, "Ма": 3058, "title</w>": 3059, "Music</w>": 3060, "му": 3061, "non-": 3062, "las": 3063, "ト": 3064, "são</w>": 3065, "ше": 3066, "stre": 3067, "ots</w>": 3068, "300</w>": 3069, "white</w>": 3070, "represent": 3071, "Richard</w>": 3072, "ically</w>": 3073, "än</w>": 3074, "ці</w>": 3075, "Hor": 3076, "working</w>": 3077, "だ</w>": 3078, "från</w>": 3079, "1959</w>": 3080, "ota</w>": 3081, "ル</w>": 3082, "ft</w>": 3083, "story</w>": 3084, "Joseph</w>": 3085, "Des": 3086, "written</w>": 3087, "wal": 3088, "力</w>": 3089, "least</w>": 3090, "acc": 3091, "keep</w>": 3092, "fen</w>": 3093, "ont": 3094, "points</w>": 3095, "inf": 3096, "uso</w>": 3097, "player</w>": 3098, "appro": 3099, "ition</w>": 3100, "iert</w>": 3101, "mouth</w>": 3102, "eu</w>": 3103, "rac": 3104, "edi": 3105, "ens": 3106, "Henry</w>": 3107, "wordt</w>": 3108, "1954</w>": 3109, "roce</w>": 3110, "hogy</w>": 3111, "Records</w>": 3112, "ッ": 3113, "פ": 3114, "ность</w>": 3115, "ס": 3116, "։</w>": 3117, "produced</w>": 3118, "esi</w>": 3119, "dat": 3120, "ської</w>": 3121, "же": 3122, "sv": 3123, "Н": 3124, "Ros": 3125, "primera</w>": 3126, "ric": 3127, "Association</w>": 3128, "ح": 3129, "So": 3130, "ар": 3131, "eve</w>": 3132, "bien</w>": 3133, "Ben": 3134, "バ": 3135, "office</w>": 3136, "Ur": 3137, "ر": 3138, "Tr": 3139, "Mexico</w>": 3140, "Company</w>": 3141, "mot": 3142, "gal": 3143, "أن</w>": 3144, "после</w>": 3145, "1947</w>": 3146, "eli</w>": 3147, "及</w>": 3148, "drei</w>": 3149, "finale</w>": 3150, "Pr": 3151, "reached</w>": 3152, "2,": 3153, "students</w>": 3154, "ä</w>": 3155, "Art</w>": 3156, "urs</w>": 3157, "amihanan-sidlakan</w>": 3158, "commune</w>": 3159, "business</w>": 3160, "Cas": 3161, "Gal": 3162, "ham": 3163, "המ": 3164, "コ": 3165, "central</w>": 3166, "ель": 3167, "IV</w>": 3168, "ér": 3169, "nego</w>": 3170, "sul</w>": 3171, "wieder</w>": 3172, "Ag": 3173, "These</w>": 3174, "José</w>": 3175, "bs</w>": 3176, "uta</w>": 3177, "Bat": 3178, "Central</w>": 3179, "mars</w>": 3180, "yes</w>": 3181, "1957</w>": 3182, "上": 3183, "sec": 3184, "Tre": 3185, "by": 3186, "enen</w>": 3187, "mol": 3188, "done</w>": 3189, "capital</w>": 3190, "вали</w>": 3191, "1952</w>": 3192, "1936</w>": 3193, "Mag": 3194, "stood</w>": 3195, "τον</w>": 3196, "ги</w>": 3197, "۔</w>": 3198, "At": 3199, "bat</w>": 3200, "schaft</w>": 3201, "ished</w>": 3202, "ja": 3203, "dio</w>": 3204, "ну": 3205, "media</w>": 3206, "пе": 3207, "sistema</w>": 3208, "того</w>": 3209, "由</w>": 3210, "thre": 3211, "eran</w>": 3212, "byl</w>": 3213, "various</w>": 3214, "Cer": 3215, "construction</w>": 3216, "north</w>": 3217, "cra": 3218, "eurs</w>": 3219, "anti</w>": 3220, "Mil": 3221, "full</w>": 3222, "од": 3223, "director</w>": 3224, "living</w>": 3225, "Air</w>": 3226, "道</w>": 3227, "že</w>": 3228, "oa</w>": 3229, "bul": 3230, "re-": 3231, "sky</w>": 3232, "ется</w>": 3233, "ish": 3234, "young</w>": 3235, "rest</w>": 3236, "mal</w>": 3237, "пу": 3238, "hum": 3239, "ша": 3240, "1949</w>": 3241, "hed</w>": 3242, "mehr</w>": 3243, "ful</w>": 3244, "All</w>": 3245, "nelle</w>": 3246, "created</w>": 3247, "wife</w>": 3248, "première</w>": 3249, "為</w>": 3250, "fall</w>": 3251, "1-": 3252, "dist": 3253, "partie</w>": 3254, "hair</w>": 3255, "ej</w>": 3256, "sé": 3257, "†</w>": 3258, "cin": 3259, "Pan": 3260, "essere</w>": 3261, "European</w>": 3262, "race</w>": 3263, "tak": 3264, "pin": 3265, "signed</w>": 3266, "高": 3267, "ring</w>": 3268, "pot": 3269, "dou": 3270, "Л": 3271, "cted</w>": 3272, "ד": 3273, "ici": 3274, "軍</w>": 3275, "ఉన</w>": 3276, "Kan": 3277, "party</w>": 3278, "سال</w>": 3279, "pela</w>": 3280, "2-": 3281, "uk</w>": 3282, "ся</w>": 3283, "community</w>": 3284, "Char": 3285, "onde</w>": 3286, "ò": 3287, "eo</w>": 3288, "ven</w>": 3289, "zy": 3290, "isk</w>": 3291, "merupakan</w>": 3292, "ground</w>": 3293, "#</w>": 3294, "change</w>": 3295, "த</w>": 3296, "burg</w>": 3297, "Ste": 3298, "рас": 3299, "ika</w>": 3300, "standing</w>": 3301, "回</w>": 3302, "Terrängen</w>": 3303, "soon</w>": 3304, "radio</w>": 3305, "الت": 3306, "kin": 3307, "প</w>": 3308, ").</w>": 3309, "medi": 3310, "fen": 3311, "hy": 3312, "tem": 3313, "niet</w>": 3314, "arms</w>": 3315, "tet</w>": 3316, "either</w>": 3317, "election</w>": 3318, "3-": 3319, "nym</w>": 3320, "å": 3321, "formed</w>": 3322, "én</w>": 3323, "ди</w>": 3324, "friend</w>": 3325, "ミ": 3326, "mine</w>": 3327, "San": 3328, "quando</w>": 3329, "ör": 3330, "شده</w>": 3331, "sav": 3332, "1955</w>": 3333, "data</w>": 3334, "Tro": 3335, "ique</w>": 3336, "té": 3337, "announced</w>": 3338, "kom</w>": 3339, "レ": 3340, "bus": 3341, "short</w>": 3342, "ngalan</w>": 3343, "она</w>": 3344, "ment": 3345, "Cam": 3346, "heart</w>": 3347, "事</w>": 3348, "pil": 3349, "tran": 3350, "ort</w>": 3351, "mil": 3352, "За": 3353, "ци": 3354, "που</w>": 3355, "mosunod</w>": 3356, "olo</w>": 3357, "mac": 3358, "ز": 3359, "cle": 3360, "À</w>": 3361, "hom": 3362, "法</w>": 3363, "similar</w>": 3364, "december</w>": 3365, "an-": 3366, "action</w>": 3367, "ський</w>": 3368, "stop</w>": 3369, "B.</w>": 3370, "War": 3371, "400</w>": 3372, "36</w>": 3373, "nas</w>": 3374, "Award</w>": 3375, "vier</w>": 3376, "ника</w>": 3377, "עם</w>": 3378, "issa</w>": 3379, "Š": 3380, "Martin</w>": 3381, "sidlakang</w>": 3382, "aci": 3383, "гу": 3384, "ча": 3385, "south</w>": 3386, "fan</w>": 3387, "coming</w>": 3388, "constitu": 3389, "Hal": 3390, "anno</w>": 3391, "Von</w>": 3392, "33</w>": 3393, "vida</w>": 3394, "church</w>": 3395, "although</w>": 3396, "Ho": 3397, "wrote</w>": 3398, "ères</w>": 3399, "川</w>": 3400, "nam": 3401, "ג": 3402, "నుండి</w>": 3403, "nit": 3404, "taking</w>": 3405, "in-": 3406, "followed</w>": 3407, "Fer": 3408, "mod": 3409, "нов</w>": 3410, "raz": 3411, "区</w>": 3412, "maar</w>": 3413, "א": 3414, "ї</w>": 3415, "elli</w>": 3416, "else</w>": 3417, "ago</w>": 3418, "ony</w>": 3419, "mad": 3420, "ering</w>": 3421, "tional</w>": 3422, "不": 3423, "1953</w>": 3424, "plan": 3425, "ler": 3426, "hit</w>": 3427, "mak": 3428, "hilabihan</w>": 3429, "жа": 3430, "кон": 3431, "ass": 3432, "lasang</w>": 3433, "Por": 3434, "februari</w>": 3435, "1919</w>": 3436, "oso</w>": 3437, "本": 3438, "seinem</w>": 3439, "eau</w>": 3440, "tab": 3441, "pit": 3442, "viene</w>": 3443, "ж</w>": 3444, "作</w>": 3445, "入</w>": 3446, "development</w>": 3447, "tour</w>": 3448, "1933</w>": 3449, "ismo</w>": 3450, "lors</w>": 3451, "ų</w>": 3452, "1937</w>": 3453, "fost</w>": 3454, "someone</w>": 3455, "рі": 3456, "dag": 3457, "viol": 3458, "Christian</w>": 3459, "test": 3460, "Wil": 3461, "â": 3462, "words</w>": 3463, "int</w>": 3464, "Nor": 3465, "学</w>": 3466, "Party</w>": 3467, "det": 3468, "година</w>": 3469, "oleh</w>": 3470, "Church</w>": 3471, "Gen": 3472, "dal": 3473, "lam": 3474, "oh</w>": 3475, "september</w>": 3476, "liegt</w>": 3477, "ick</w>": 3478, "get": 3479, "ap</w>": 3480, "到</w>": 3481, "2.</w>": 3482, "sat</w>": 3483, "ま</w>": 3484, "seva</w>": 3485, "Pra": 3486, "parti": 3487, "start</w>": 3488, "port": 3489, "Kol": 3490, "出": 3491, "20": 3492, "戦</w>": 3493, "yer</w>": 3494, "車</w>": 3495, "heard</w>": 3496, "小": 3497, "των</w>": 3498, "che": 3499, "ais": 3500, "net": 3501, "sli": 3502, "type</w>": 3503, "ciudad</w>": 3504, "Festival</w>": 3505, "situ": 3506, "un'</w>": 3507, "kann</w>": 3508, "lé": 3509, "ged</w>": 3510, "oth": 3511, "オ": 3512, "Noruwega</w>": 3513, "가</w>": 3514, "wing</w>": 3515, "free</w>": 3516, "sat": 3517, "Fin": 3518, "enia</w>": 3519, "י": 3520, "bit</w>": 3521, "Bro": 3522, "considered</w>": 3523, "عام</w>": 3524, "brother</w>": 3525, "rag": 3526, "лю": 3527, "目</w>": 3528, "table</w>": 3529, "ain": 3530, "ей</w>": 3531, "Jean</w>": 3532, "Em": 3533, "seinen</w>": 3534, "spo": 3535, "так</w>": 3536, "ט": 3537, "tant</w>": 3538, "ран": 3539, "person</w>": 3540, "puis</w>": 3541, "był</w>": 3542, "yet</w>": 3543, "kap": 3544, "를</w>": 3545, "class</w>": 3546, "possible</w>": 3547, "uri</w>": 3548, "From</w>": 3549, "का</w>": 3550, "huvudsak</w>": 3551, "wit": 3552, "ч</w>": 3553, "tam": 3554, "本</w>": 3555, "ала</w>": 3556, "encia</w>": 3557, "azioni</w>": 3558, "J.</w>": 3559, "pelo</w>": 3560, "ras": 3561, "ет": 3562, "ел": 3563, "termin": 3564, "于</w>": 3565, "Italia</w>": 3566, "ция</w>": 3567, "tä": 3568, "toward</w>": 3569, "zona</w>": 3570, "ы": 3571, "Um": 3572, "ense</w>": 3573, "ý</w>": 3574, "eva</w>": 3575, "Si</w>": 3576, "ه": 3577, "ג</w>": 3578, "tả</w>": 3579, "ナ": 3580, "至</w>": 3581, "radi": 3582, "ard": 3583, "loro</w>": 3584, "Army</w>": 3585, "Pet": 3586, "air": 3587, "高</w>": 3588, "cent": 3589, "cht": 3590, "described</w>": 3591, "diese</w>": 3592, "mur": 3593, "ih": 3594, "past</w>": 3595, "Ko": 3596, "domin": 3597, "später</w>": 3598, "nei</w>": 3599, "Estado</w>": 3600, "natural</w>": 3601, "alen</w>": 3602, "To</w>": 3603, "Ku": 3604, "Bau": 3605, "gran": 3606, "ск": 3607, "andere</w>": 3608, "rie</w>": 3609, "Hall</w>": 3610, "Со": 3611, "34</w>": 3612, "maybe</w>": 3613, "emp": 3614, "Ottawa</w>": 3615, "Bei</w>": 3616, "分</w>": 3617, "으로</w>": 3618, "ат": 3619, "新</w>": 3620, "Francisco</w>": 3621, "ai": 3622, "trying</w>": 3623, "1951</w>": 3624, "Juan</w>": 3625, "ui</w>": 3626, "din": 3627, "新": 3628, "ши": 3629, "eno</w>": 3630, "aka</w>": 3631, "体</w>": 3632, "n-": 3633, "三</w>": 3634, "ums</w>": 3635, "నాయి</w>": 3636, "suba</w>": 3637, "Ap": 3638, "σε</w>": 3639, "ло</w>": 3640, "further</w>": 3641, "park</w>": 3642, "ini": 3643, "political</w>": 3644, "па</w>": 3645, "regul": 3646, "também</w>": 3647, "Tour</w>": 3648, "Van</w>": 3649, "By</w>": 3650, "lot</w>": 3651, "ר": 3652, "employ": 3653, "kur": 3654, "east</w>": 3655, "kabukiran</w>": 3656, "Dis": 3657, "tained</w>": 3658, "President</w>": 3659, "వ</w>": 3660, "lies</w>": 3661, "pel</w>": 3662, "数</w>": 3663, "court</w>": 3664, "ses": 3665, "dar</w>": 3666, "вал</w>": 3667, "ನು</w>": 3668, "tem</w>": 3669, "度</w>": 3670, "force</w>": 3671, "date</w>": 3672, "ח": 3673, "à": 3674, "ë</w>": 3675, "ket</w>": 3676, "playing</w>": 3677, "aa</w>": 3678, "aliz": 3679, "ined</w>": 3680, "於</w>": 3681, "but": 3682, "Mountain</w>": 3683, "founded</w>": 3684, "rá": 3685, "Texas</w>": 3686, "fic": 3687, "ме</w>": 3688, "onia</w>": 3689, "4-": 3690, "esc": 3691, "present": 3692, "produc": 3693, "années</w>": 3694, "Oslo</w>": 3695, "row</w>": 3696, "Loài</w>": 3697, "ational</w>": 3698, "human</w>": 3699, "ï": 3700, "1934</w>": 3701, "Sel": 3702, "ory</w>": 3703, "це</w>": 3704, "amp": 3705, "య</w>": 3706, "ната</w>": 3707, "dol": 3708, "ament</w>": 3709, "best": 3710, "ime</w>": 3711, "都</w>": 3712, "サ": 3713, "television</w>": 3714, "ق": 3715, "вой</w>": 3716, "ously</w>": 3717, "nad</w>": 3718, "ಲಿ</w>": 3719, "nell'</w>": 3720, "ità</w>": 3721, "realiz": 3722, "sup": 3723, "says</w>": 3724, "str": 3725, "gy": 3726, "로</w>": 3727, "사": 3728, "inger</w>": 3729, "debut</w>": 3730, "Council</w>": 3731, "khoa</w>": 3732, "feet</w>": 3733, "1935</w>": 3734, "speci": 3735, "Hij</w>": 3736, "Mad": 3737, "cy": 3738, "military</w>": 3739, "38</w>": 3740, "kam</w>": 3741, "ній</w>": 3742, "defin": 3743, "ール</w>": 3744, "tak</w>": 3745, "0.": 3746, "sit": 3747, "sä": 3748, "ove</w>": 3749, "Mit": 3750, "2.": 3751, "peut</w>": 3752, "cost": 3753, "タ": 3754, "kind</w>": 3755, "beim</w>": 3756, "lab": 3757, "arri": 3758, "contra": 3759, "ê": 3760, "president</w>": 3761, "Bay</w>": 3762, "tempo</w>": 3763, "studio</w>": 3764, "でき</w>": 3765, "casa</w>": 3766, "deze</w>": 3767, "Im": 3768, "где</w>": 3769, "ל</w>": 3770, "Center</w>": 3771, "tried</w>": 3772, "fast</w>": 3773, "ciones</w>": 3774, "leave</w>": 3775, "Mai</w>": 3776, "ath</w>": 3777, "gia</w>": 3778, "間</w>": 3779, "17": 3780, "ares</w>": 3781, "iste</w>": 3782, "äl": 3783, "ences</w>": 3784, "ת": 3785, "skim</w>": 3786, "5-": 3787, "16": 3788, "uch": 3789, "vào</w>": 3790, "owych</w>": 3791, "ased</w>": 3792, "exist": 3793, "tis</w>": 3794, "sus": 3795, "Pas": 3796, "Cap": 3797, "б</w>": 3798, "Ram": 3799, "atus</w>": 3800, "пер": 3801, "い": 3802, "या</w>": 3803, "outside</w>": 3804, "Nord": 3805, "stone</w>": 3806, "przy": 3807, "West": 3808, "bri": 3809, "kao</w>": 3810, "mist": 3811, "almente</w>": 3812, "гра": 3813, "finished</w>": 3814, "information</w>": 3815, "esse</w>": 3816, "στην</w>": 3817, "ш</w>": 3818, "instead</w>": 3819, "Japan</w>": 3820, "alt</w>": 3821, "Pe": 3822, "Ч": 3823, "trois</w>": 3824, "становника</w>": 3825, "sebagai</w>": 3826, "ex</w>": 3827, "services</w>": 3828, "november</w>": 3829, "غ": 3830, "zen": 3831, "enta</w>": 3832, "tá": 3833, "15": 3834, "وت": 3835, "1929</w>": 3836, "lan</w>": 3837, "号</w>": 3838, "，</w>": 3839, "lis": 3840, "त</w>": 3841, "át</w>": 3842, "और</w>": 3843, "ما</w>": 3844, "ニ": 3845, "everything</w>": 3846, "olog": 3847, "że</w>": 3848, "ín</w>": 3849, "世界</w>": 3850, "1914</w>": 3851, "mentre</w>": 3852, "havia</w>": 3853, "sem</w>": 3854, "minutes</w>": 3855, "nak</w>": 3856, "unds</w>": 3857, "cas</w>": 3858, "sido</w>": 3859, "1917</w>": 3860, "aires</w>": 3861, "move</w>": 3862, "finally</w>": 3863, "division</w>": 3864, "enza</w>": 3865, "ani": 3866, "r.</w>": 3867, "You</w>": 3868, "44</w>": 3869, "fat": 3870, "vat": 3871, "Kinahabogang</w>": 3872, "ха": 3873, "1928</w>": 3874, "ја</w>": 3875, "Black</w>": 3876, "Vol": 3877, "ihre</w>": 3878, "לי": 3879, "any": 3880, "ів</w>": 3881, "kis": 3882, "også</w>": 3883, "elt</w>": 3884, "daughter</w>": 3885, "Rio</w>": 3886, "liga</w>": 3887, "continu": 3888, "nun</w>": 3889, "tic": 3890, "Ob": 3891, "lead</w>": 3892, "пі": 3893, "ص": 3894, "нию</w>": 3895, "山": 3896, "proces": 3897, "owe</w>": 3898, "term</w>": 3899, "gi</w>": 3900, "list</w>": 3901, "ability</w>": 3902, "però</w>": 3903, "과</w>": 3904, "ying</w>": 3905, "sab": 3906, "“</w>": 3907, "lov": 3908, "According</w>": 3909, "़</w>": 3910, "tors</w>": 3911, "ships</w>": 3912, "Ende</w>": 3913, "fueron</w>": 3914, "کی</w>": 3915, "ists</w>": 3916, "mot</w>": 3917, "squ": 3918, "ierte</w>": 3919, "使用</w>": 3920, "tit": 3921, "số</w>": 3922, "Sz": 3923, "”</w>": 3924, "call</w>": 3925, "oni": 3926, "มี</w>": 3927, "bed": 3928, "Smith</w>": 3929, "ské</w>": 3930, "doing</w>": 3931, "области</w>": 3932, "ected</w>": 3933, "Del": 3934, "西": 3935, "lugar</w>": 3936, "grupo</w>": 3937, "isme</w>": 3938, "sound</w>": 3939, "Sc": 3940, "itu</w>": 3941, "mis</w>": 3942, "months</w>": 3943, "mun": 3944, "ę": 3945, "eng</w>": 3946, "Ni": 3947, "owy</w>": 3948, "bot": 3949, "зна": 3950, "1932</w>": 3951, "}</w>": 3952, "nica</w>": 3953, "ня</w>": 3954, "I.</w>": 3955, "75</w>": 3956, "ram": 3957, "aos</w>": 3958, "이다</w>": 3959, "ep</w>": 3960, "Не": 3961, "之</w>": 3962, "dark</w>": 3963, "Про": 3964, "से</w>": 3965, "koji</w>": 3966, "centre</w>": 3967, "org": 3968, "To": 3969, "को</w>": 3970, "Group</w>": 3971, "ec</w>": 3972, "{</w>": 3973, "ching</w>": 3974, "ná": 3975, "thành</w>": 3976, "tie</w>": 3977, "lin</w>": 3978, "brought</w>": 3979, "elected</w>": 3980, "erste</w>": 3981, "був</w>": 3982, "Ку": 3983, "ně</w>": 3984, "section</w>": 3985, "ott</w>": 3986, "任</w>": 3987, "girl</w>": 3988, "stu": 3989, "кой</w>": 3990, "ju</w>": 3991, "professional</w>": 3992, "naj": 3993, "ě</w>": 3994, "Gr": 3995, "下": 3996, "ц</w>": 3997, "Mol": 3998, "vattendrag</w>": 3999, "uc": 4000, "Fran": 4001, "64</w>": 4002, "公": 4003, "rin</w>": 4004, "temps</w>": 4005, "aten</w>": 4006, "ock</w>": 4007, "ع": 4008, "present</w>": 4009, "niining</w>": 4010, "depuis</w>": 4011, "1924</w>": 4012, "center</w>": 4013, "put": 4014, "recorded</w>": 4015, "lag": 4016, "person": 4017, "rap": 4018, "forces</w>": 4019, "ney</w>": 4020, "With</w>": 4021, "zy</w>": 4022, "eni": 4023, "ī": 4024, "Angeles</w>": 4025, "Su</w>": 4026, "Tu": 4027, "common</w>": 4028, "сти</w>": 4029, "Mit</w>": 4030, "より</w>": 4031, "ー</w>": 4032, "closed</w>": 4033, "Bol": 4034, "acji</w>": 4035, "wel": 4036, "oph": 4037, "país</w>": 4038, "dest": 4039, "ється</w>": 4040, "ры": 4041, "iki</w>": 4042, "Red</w>": 4043, "ards</w>": 4044, "vest": 4045, "学校</w>": 4046, "za": 4047, "Mga</w>": 4048, "ав": 4049, "Я": 4050, "design</w>": 4051, "ס</w>": 4052, "release</w>": 4053, "eux</w>": 4054, "konnte</w>": 4055, "hab": 4056, "Es": 4057, "contre</w>": 4058, "tag": 4059, "ward</w>": 4060, "cuando</w>": 4061, "日": 4062, "Da</w>": 4063, "Mount</w>": 4064, "Museum</w>": 4065, "needed</w>": 4066, "الأ": 4067, "sebuah</w>": 4068, "oro</w>": 4069, "село</w>": 4070, "Western</w>": 4071, "ские</w>": 4072, "Ban": 4073, "3,": 4074, "tas</w>": 4075, "Indian</w>": 4076, "nem": 4077, "kas": 4078, "パ": 4079, "jusqu'</w>": 4080, "lim": 4081, "act</w>": 4082, "appointed</w>": 4083, "ен</w>": 4084, "tru": 4085, "За</w>": 4086, "水": 4087, "S.</w>": 4088, "event</w>": 4089, "Han": 4090, "ements</w>": 4091, "Oktober</w>": 4092, "ál": 4093, "mort</w>": 4094, "цы</w>": 4095, "ihm</w>": 4096, "че</w>": 4097, "сы</w>": 4098, "Cat": 4099, "бі": 4100, "inte</w>": 4101, "arti": 4102, "ag</w>": 4103, "Championship</w>": 4104, "dit": 4105, "upon</w>": 4106, "fri": 4107, "gef": 4108, "ving</w>": 4109, "habagatan-sidlakan</w>": 4110, "plaats</w>": 4111, "ame</w>": 4112, "ő</w>": 4113, "той</w>": 4114, "ls</w>": 4115, "지": 4116, "Indonesia</w>": 4117, "42</w>": 4118, "erin</w>": 4119, "чи</w>": 4120, "above</w>": 4121, "dove</w>": 4122, "ор": 4123, "手</w>": 4124, "ú</w>": 4125, "arm</w>": 4126, "etta</w>": 4127, "있다</w>": 4128, "uni": 4129, "ين</w>": 4130, "language</w>": 4131, "ack": 4132, "población</w>": 4133, "bez": 4134, "mus": 4135, "stein</w>": 4136, "二</w>": 4137, "developed</w>": 4138, "ū": 4139, "キ": 4140, "التي</w>": 4141, "floor</w>": 4142, "fact</w>": 4143, "тан": 4144, "ologie</w>": 4145, "nord</w>": 4146, "kam": 4147, "ве</w>": 4148, "tica</w>": 4149, "中国</w>": 4150, "tal</w>": 4151, "tiên</w>": 4152, "gan": 4153, "turn</w>": 4154, "48</w>": 4155, "nap": 4156, "banda</w>": 4157, "για</w>": 4158, "лет</w>": 4159, "sau</w>": 4160, "駅</w>": 4161, "kit": 4162, "prepar": 4163, "lag</w>": 4164, "Per</w>": 4165, "sent": 4166, "film": 4167, "tiene</w>": 4168, "había</w>": 4169, "tot": 4170, "heute</w>": 4171, "町</w>": 4172, "pulled</w>": 4173, "ط": 4174, "ман": 4175, "Kam": 4176, "cad": 4177, "blood</w>": 4178, "ラ</w>": 4179, "ہے</w>": 4180, "Sen": 4181, "ните</w>": 4182, "killed</w>": 4183, "ending</w>": 4184, "primo</w>": 4185, "isen</w>": 4186, "ath": 4187, "37</w>": 4188, "村</w>": 4189, "ал": 4190, "Road</w>": 4191, "στο</w>": 4192, "Gre": 4193, "latach</w>": 4194, "soci": 4195, "plusieurs</w>": 4196, "ized</w>": 4197, "مع</w>": 4198, "Bon": 4199, "teen</w>": 4200, "pres": 4201, "ским</w>": 4202, "nek</w>": 4203, "We": 4204, "nas": 4205, "White</w>": 4206, "uh": 4207, "main": 4208, "Society</w>": 4209, "bek": 4210, "mente</w>": 4211, "Lin": 4212, "Gro": 4213, "pis": 4214, "skiego</w>": 4215, "iu</w>": 4216, "Australian</w>": 4217, "1931</w>": 4218, "oj": 4219, "otros</w>": 4220, "dir</w>": 4221, "sle": 4222, "probably</w>": 4223, "consider": 4224, "vet": 4225, "Kanada</w>": 4226, "ה": 4227, "return</w>": 4228, "ului</w>": 4229, "ash": 4230, "ак": 4231, "organis": 4232, "ле</w>": 4233, "decided</w>": 4234, "ym": 4235, "1921</w>": 4236, "groupe</w>": 4237, "lec": 4238, "вала</w>": 4239, "ское</w>": 4240, "ear": 4241, "ер": 4242, "tis": 4243, "tig</w>": 4244, "bio</w>": 4245, "Madrid</w>": 4246, "usually</w>": 4247, "pp": 4248, "Men": 4249, "vä": 4250, "воз": 4251, "1922</w>": 4252, "research</w>": 4253, "ції</w>": 4254, "M.</w>": 4255, "vir": 4256, "port</w>": 4257, "Province</w>": 4258, "мен</w>": 4259, "venne</w>": 4260, "zich</w>": 4261, "Hel": 4262, "Nacional</w>": 4263, "haben</w>": 4264, "A-": 4265, "equ": 4266, "fun": 4267, "է</w>": 4268, "mayor</w>": 4269, "Cro": 4270, "τα</w>": 4271, "機</w>": 4272, "cru": 4273, "Man</w>": 4274, "seemed</w>": 4275, "lang": 4276, "tas": 4277, "ем</w>": 4278, "sho": 4279, "big</w>": 4280, "sing": 4281, "alis</w>": 4282, "oktober</w>": 4283, "tanto</w>": 4284, "Ham": 4285, "1927</w>": 4286, "seg": 4287, "є": 4288, "très</w>": 4289, "owej</w>": 4290, "cri": 4291, "ک": 4292, "rum": 4293, "ハ": 4294, "Marso</w>": 4295, "Gemeinde</w>": 4296, "kt": 4297, "آ": 4298, "ula</w>": 4299, "areas</w>": 4300, "consist": 4301, "bin": 4302, "CD</w>": 4303, "3.</w>": 4304, "её</w>": 4305, "خ": 4306, "かっ</w>": 4307, "q</w>": 4308, "ation": 4309, "police</w>": 4310, "example</w>": 4311, "forme</w>": 4312, "regist": 4313, "lä": 4314, "sea</w>": 4315, "1925</w>": 4316, "面</w>": 4317, "Au": 4318, "liber": 4319, "ru</w>": 4320, "anc": 4321, "語</w>": 4322, "ј": 4323, "元</w>": 4324, "hun</w>": 4325, "1926</w>": 4326, "rist": 4327, "ють</w>": 4328, "人": 4329, "Ö": 4330, "成</w>": 4331, "кра": 4332, "ила</w>": 4333, "mem": 4334, "Sim": 4335, "ody</w>": 4336, "average</w>": 4337, "ping</w>": 4338, "changed</w>": 4339, "Bet": 4340, "ust</w>": 4341, "し": 4342, "人口</w>": 4343, "ية</w>": 4344, "hen": 4345, "ною</w>": 4346, "ining</w>": 4347, "ста</w>": 4348, "ef</w>": 4349, "同": 4350, "Don": 4351, "habagatang</w>": 4352, "ì</w>": 4353, "owa</w>": 4354, "jer": 4355, "kasagaran</w>": 4356, "tat": 4357, "기": 4358, "iro</w>": 4359, "צ": 4360, "juga</w>": 4361, "це": 4362, "addition</w>": 4363, "Cette</w>": 4364, "Institute</w>": 4365, "result</w>": 4366, "cop": 4367, "Septiyembre</w>": 4368, "flo": 4369, "het": 4370, "1912</w>": 4371, "aki</w>": 4372, "atic</w>": 4373, "teams</w>": 4374, "lá": 4375, "rather</w>": 4376, "rad": 4377, "ブ": 4378, "bach</w>": 4379, "Fl": 4380, "ick": 4381, "cab": 4382, "agosto</w>": 4383, "пол": 4384, "Kap": 4385, "mean</w>": 4386, "tháng</w>": 4387, "19.</w>": 4388, "後": 4389, "gan</w>": 4390, "skiej</w>": 4391, "ret</w>": 4392, "00</w>": 4393, "18": 4394, "rem": 4395, "back": 4396, "importante</w>": 4397, "eg</w>": 4398, "·": 4399, "iska</w>": 4400, "1923</w>": 4401, "rich": 4402, "ym</w>": 4403, "NGC</w>": 4404, "mand": 4405, "después</w>": 4406, "project</w>": 4407, "volta</w>": 4408, "bungtod</w>": 4409, "год</w>": 4410, "Chicago</w>": 4411, "wat</w>": 4412, "werk</w>": 4413, "running</w>": 4414, "heim</w>": 4415, "س</w>": 4416, "anderen</w>": 4417, "ت</w>": 4418, "ega</w>": 4419, "ede</w>": 4420, "న</w>": 4421, "його</w>": 4422, "בי": 4423, "وي": 4424, "gé": 4425, "modern</w>": 4426, "شد</w>": 4427, "Ю": 4428, "habagatan-sidlakang</w>": 4429, "Ol": 4430, "型</w>": 4431, "yst": 4432, "北": 4433, "ול": 4434, "conclu": 4435, "eria</w>": 4436, "dann</w>": 4437, "wide</w>": 4438, "ന</w>": 4439, "три": 4440, "После</w>": 4441, "Spring</w>": 4442, "sense</w>": 4443, "thro": 4444, "ball</w>": 4445, "added</w>": 4446, "лен": 4447, "obra</w>": 4448, "nad": 4449, "haus</w>": 4450, "our": 4451, "musical</w>": 4452, "Januar</w>": 4453, "tar</w>": 4454, "questo</w>": 4455, "remained</w>": 4456, "nis": 4457, "Pen": 4458, "عن</w>": 4459, "Iran</w>": 4460, "zer": 4461, "кар": 4462, "dall'</w>": 4463, "Juni</w>": 4464, "Nobiyembre</w>": 4465, "ited</w>": 4466, "vé": 4467, "Juli</w>": 4468, "nav": 4469, "Rock</w>": 4470, "fund": 4471, "fois</w>": 4472, "álbum</w>": 4473, "Stra": 4474, "While</w>": 4475, "mos": 4476, "הא": 4477, "St</w>": 4478, "många</w>": 4479, "Teil</w>": 4480, "pos": 4481, "vuonna</w>": 4482, "။</w>": 4483, "同</w>": 4484, "ento</w>": 4485, "eerste</w>": 4486, "color</w>": 4487, "ā</w>": 4488, "série</w>": 4489, "هو</w>": 4490, "стра": 4491, "bak": 4492, "tent": 4493, "55</w>": 4494, "igh": 4495, "Pa": 4496, "neg": 4497, "produ": 4498, "ә": 4499, "pic": 4500, "olan</w>": 4501, "Mary</w>": 4502, "Ви": 4503, "시": 4504, "Dans</w>": 4505, "suite</w>": 4506, "ри</w>": 4507, "Sub": 4508, "Os</w>": 4509, "城</w>": 4510, "board</w>": 4511, "ency</w>": 4512, "Sab": 4513, "available</w>": 4514, "kre": 4515, "yr": 4516, "Dan": 4517, "τη</w>": 4518, "refer": 4519, "vent": 4520, "Ар": 4521, "origin": 4522, "on-": 4523, "Dom": 4524, "öster</w>": 4525, "nice</w>": 4526, "場</w>": 4527, "odi": 4528, "UK</w>": 4529, "王</w>": 4530, "lips</w>": 4531, "Son</w>": 4532, "tt": 4533, "upp": 4534, "avant</w>": 4535, "rä": 4536, "方</w>": 4537, "mission</w>": 4538, "wid": 4539, "heeft</w>": 4540, "shot</w>": 4541, "1910</w>": 4542, "eden</w>": 4543, "bereits</w>": 4544, "Bl": 4545, "形</w>": 4546, "который</w>": 4547, "seat</w>": 4548, "special</w>": 4549, "No": 4550, "ア</w>": 4551, "Sil": 4552, "ді": 4553, "lad": 4554, "ike</w>": 4555, "式</w>": 4556, "rom": 4557, "arse</w>": 4558, "Od</w>": 4559, "vật</w>": 4560, "fro": 4561, "vot": 4562, "private</w>": 4563, "ר</w>": 4564, "estis</w>": 4565, "ба</w>": 4566, "대": 4567, "First</w>": 4568, "adores</w>": 4569, "него</w>": 4570, "ان": 4571, "März</w>": 4572, "sos</w>": 4573, "los": 4574, "수": 4575, "Ti": 4576, "zar": 4577, "nim</w>": 4578, "Ein</w>": 4579, "fort</w>": 4580, "島</w>": 4581, "είναι</w>": 4582, "Über": 4583, "poi</w>": 4584, "Kh": 4585, "ומ": 4586, "使</w>": 4587, "הת": 4588, "rate</w>": 4589, "không</w>": 4590, "gam": 4591, "essa</w>": 4592, "imp": 4593, "Germany</w>": 4594, "ге</w>": 4595, "ack</w>": 4596, "Dor": 4597, "cual</w>": 4598, "app": 4599, "week</w>": 4600, "tan</w>": 4601, "mise</w>": 4602, "isi</w>": 4603, "жен": 4604, "route</w>": 4605, "І": 4606, "osi</w>": 4607, "ult</w>": 4608, "ду</w>": 4609, "parents</w>": 4610, "物</w>": 4611, "ities</w>": 4612, "material</w>": 4613, "ovat</w>": 4614, "میں</w>": 4615, "Antonio</w>": 4616, "zug": 4617, "São</w>": 4618, "ня": 4619, "fr": 4620, "hop": 4621, "gem": 4622, "hin": 4623, "oi</w>": 4624, "Pin": 4625, "zeuden</w>": 4626, "Mayo</w>": 4627, "té</w>": 4628, "sei</w>": 4629, "certain</w>": 4630, "र</w>": 4631, "đ": 4632, "вод": 4633, "ikke</w>": 4634, "house": 4635, "ures</w>": 4636, "Мар": 4637, "zá": 4638, "Ki": 4639, "licher</w>": 4640, "andra</w>": 4641, "cen": 4642, "ī</w>": 4643, "space</w>": 4644, "structure</w>": 4645, "två</w>": 4646, "stage</w>": 4647, "events</w>": 4648, "фи": 4649, "model</w>": 4650, "ками</w>": 4651, "né": 4652, "cr": 4653, "dessen</w>": 4654, "films</w>": 4655, "lis</w>": 4656, "từ</w>": 4657, "pad": 4658, "род": 4659, "Cu": 4660, "лі</w>": 4661, "ソ": 4662, "ד</w>": 4663, "би</w>": 4664, "但</w>": 4665, "Па": 4666, "stad</w>": 4667, "нов": 4668, "habitantes</w>": 4669, "zw": 4670, "gue</w>": 4671, "Bes": 4672, "herself</w>": 4673, "quickly</w>": 4674, "track</w>": 4675, "מו": 4676, "メ": 4677, "Y</w>": 4678, "дом</w>": 4679, "större</w>": 4680, "direc": 4681, "tun": 4682, "jen": 4683, "与</w>": 4684, "கள</w>": 4685, "money</w>": 4686, "sak": 4687, "elev": 4688, "wall</w>": 4689, "sud</w>": 4690, "8-": 4691, "Super": 4692, "tym</w>": 4693, "città</w>": 4694, "liter": 4695, "тра": 4696, "вого</w>": 4697, "ás</w>": 4698, "Brasil</w>": 4699, "ة</w>": 4700, "western</w>": 4701, "tour": 4702, "得</w>": 4703, "led": 4704, "ihrer</w>": 4705, "Ба": 4706, "Hy": 4707, "52</w>": 4708, "ô": 4709, "eit</w>": 4710, "ได้</w>": 4711, "forward</w>": 4712, "Roman</w>": 4713, "Academy</w>": 4714, "long": 4715, "assa</w>": 4716, "39</w>": 4717, "français</w>": 4718, "Са": 4719, "20.</w>": 4720, "rated</w>": 4721, "lang</w>": 4722, "Ke": 4723, "thực</w>": 4724, "가": 4725, "пра": 4726, "La": 4727, "aca</w>": 4728, "کے</w>": 4729, "Some</w>": 4730, "イ</w>": 4731, "lands</w>": 4732, "пред": 4733, "ops</w>": 4734, "6-": 4735, "anta</w>": 4736, "Karl</w>": 4737, "Roma</w>": 4738, "plac": 4739, "asi": 4740, "dort</w>": 4741, "Ре": 4742, "аль": 4743, "puede</w>": 4744, "efter</w>": 4745, "alis": 4746, "jego</w>": 4747, "При": 4748, "Cre": 4749, "د</w>": 4750, "allowed</w>": 4751, "Бо": 4752, "Ми": 4753, "การ</w>": 4754, "Ли": 4755, "isa</w>": 4756, "kop": 4757, "jen</w>": 4758, "Rom": 4759, "け</w>": 4760, "это</w>": 4761, "gibt</w>": 4762, "Jo": 4763, "य</w>": 4764, "current</w>": 4765, "etter</w>": 4766, "polit": 4767, "Bundes": 4768, "ско": 4769, "其</w>": 4770, "ox": 4771, "tout</w>": 4772, "april</w>": 4773, "getting</w>": 4774, "dakbayan</w>": 4775, "investig": 4776, "ema</w>": 4777, "ван": 4778, "Alexander</w>": 4779, "ihn</w>": 4780, "sold</w>": 4781, "J</w>": 4782, "enten</w>": 4783, "بر": 4784, "placed</w>": 4785, "нием</w>": 4786, "D.</w>": 4787, "Rad": 4788, "対</w>": 4789, "phone</w>": 4790, "рен": 4791, "crit": 4792, "wouldn</w>": 4793, "åt</w>": 4794, "ways</w>": 4795, "adi</w>": 4796, "Nach": 4797, "וב": 4798, "Sk": 4799, "ب</w>": 4800, "kov": 4801, "parts</w>": 4802, "ulohang</w>": 4803, "ries</w>": 4804, "вания</w>": 4805, "unt</w>": 4806, "aan": 4807, "fur": 4808, "boy</w>": 4809, "тер": 4810, "東": 4811, "aqu": 4812, "vie</w>": 4813, "1000</w>": 4814, "currently</w>": 4815, "代</w>": 4816, "Cur": 4817, "pom": 4818, "eventually</w>": 4819, "bus</w>": 4820, "4.</w>": 4821, "ге": 4822, "nung</w>": 4823, "ès</w>": 4824, "ська</w>": 4825, "anie</w>": 4826, "ost</w>": 4827, "1900</w>": 4828, "kun</w>": 4829, "key</w>": 4830, "talk</w>": 4831, "ø": 4832, "Universität</w>": 4833, "tura</w>": 4834, "scre": 4835, "deep</w>": 4836, "Ju": 4837, "smile</w>": 4838, "dead</w>": 4839, "cer</w>": 4840, "1913</w>": 4841, "лись</w>": 4842, "process</w>": 4843, "Ty": 4844, "thuộc</w>": 4845, "Durante</w>": 4846, "Region</w>": 4847, "але</w>": 4848, "document": 4849, "những</w>": 4850, "天": 4851, "todo</w>": 4852, "сть</w>": 4853, "yo": 4854, "aga</w>": 4855, "Football</w>": 4856, "alone</w>": 4857, "nis</w>": 4858, "43</w>": 4859, "Hans</w>": 4860, "myself</w>": 4861, "Gor": 4862, "Jan": 4863, "limit": 4864, "nag": 4865, "ಪ</w>": 4866, "전": 4867, "bad</w>": 4868, "два</w>": 4869, "vá": 4870, "range</w>": 4871, "мы</w>": 4872, "Ak": 4873, "46</w>": 4874, "ске</w>": 4875, "ř": 4876, "opp": 4877, "eten</w>": 4878, "പ</w>": 4879, "科</w>": 4880, "час</w>": 4881, "院</w>": 4882, "Love</w>": 4883, "ή</w>": 4884, "ár": 4885, "omgivningarna</w>": 4886, "ował</w>": 4887, "み</w>": 4888, "ming</w>": 4889, "leading</w>": 4890, "Band</w>": 4891, "fis": 4892, "أو</w>": 4893, "kul": 4894, "fino</w>": 4895, "child</w>": 4896, "apar": 4897, "bon": 4898, "gab</w>": 4899, "fran": 4900, "unded</w>": 4901, "리": 4902, "dad</w>": 4903, "じ</w>": 4904, "hadn</w>": 4905, "features</w>": 4906, "зу": 4907, "Dra": 4908, "является</w>": 4909, "ły</w>": 4910, "sans</w>": 4911, "dhe</w>": 4912, "uli": 4913, "idad</w>": 4914, "zone</w>": 4915, "ע": 4916, "ight</w>": 4917, "ids</w>": 4918, "mismo</w>": 4919, "Az": 4920, "ట</w>": 4921, "designed</w>": 4922, "ass</w>": 4923, "växer</w>": 4924, "part": 4925, "fi</w>": 4926, "Dr.</w>": 4927, "Do</w>": 4928, "特": 4929, "seven</w>": 4930, "ци</w>": 4931, "стал</w>": 4932, "ius</w>": 4933, "passed</w>": 4934, "gone</w>": 4935, "friends</w>": 4936, "strong</w>": 4937, "Her</w>": 4938, "kes": 4939, "vil": 4940, "41</w>": 4941, "()</w>": 4942, "7-": 4943, "fon": 4944, "ś": 4945, "ウ": 4946, "hän</w>": 4947, "ず</w>": 4948, "sometimes</w>": 4949, "点</w>": 4950, "anda</w>": 4951, "Ce</w>": 4952, "conver": 4953, "رو": 4954, "blo": 4955, "Big</w>": 4956, "47</w>": 4957, "立</w>": 4958, "Go": 4959, "grand": 4960, "Plat": 4961, "き": 4962, "hit": 4963, "1915</w>": 4964, "try</w>": 4965, "Radio</w>": 4966, "стро": 4967, "oke</w>": 4968, "sul": 4969, "Leg": 4970, "active</w>": 4971, "todos</w>": 4972, "expres": 4973, "К</w>": 4974, "education</w>": 4975, "asta</w>": 4976, "було</w>": 4977, "meer</w>": 4978, "ль</w>": 4979, "Op": 4980, "ви</w>": 4981, "モ": 4982, "小</w>": 4983, "während</w>": 4984, "Great</w>": 4985, "stanovnika</w>": 4986, "Team</w>": 4987, "hours</w>": 4988, "ی": 4989, "hans</w>": 4990, "Columbia</w>": 4991, "Tom": 4992, "ート</w>": 4993, "లో</w>": 4994, "Edward</w>": 4995, "ом</w>": 4996, "My": 4997, "character</w>": 4998, "sun": 4999, "avait</w>": 5000, "лу": 5001, "performance</w>": 5002, "एक</w>": 5003, "ves": 5004, "Č": 5005, "Mark</w>": 5006, "Este</w>": 5007, "Diese</w>": 5008, "jaar</w>": 5009, "кан": 5010, "kept</w>": 5011, "Kur": 5012, "gas</w>": 5013, "vid": 5014, "XIX</w>": 5015, "Best</w>": 5016, "contribu": 5017, "ave</w>": 5018, "Ker": 5019, "Virginia</w>": 5020, "isten</w>": 5021, "Nag": 5022, "ネ": 5023, "onder": 5024, "Friedrich</w>": 5025, "ガ": 5026, "局</w>": 5027, "長": 5028, "ב</w>": 5029, "ett": 5030, "sit</w>": 5031, "edit": 5032, "Mah": 5033, "ilo</w>": 5034, "ular</w>": 5035, "invest": 5036, "official</w>": 5037, "ша</w>": 5038, "או": 5039, "đến</w>": 5040, "3.": 5041, "cle</w>": 5042, "Си": 5043, "accep": 5044, "ز</w>": 5045, "150</w>": 5046, "training</w>": 5047, "isch": 5048, "ną</w>": 5049, "songs</w>": 5050, "sione</w>": 5051, "Sav": 5052, "myös</w>": 5053, "involved</w>": 5054, "Мо": 5055, "Carlos</w>": 5056, "dot": 5057, "conc": 5058, "Ро": 5059, "attack</w>": 5060, "cher": 5061, "ט</w>": 5062, "ams</w>": 5063, "بود</w>": 5064, "fest": 5065, "οι</w>": 5066, "ఉంది</w>": 5067, "بعد</w>": 5068, "Nar": 5069, "personal</w>": 5070, "beiden</w>": 5071, "ק</w>": 5072, "whole</w>": 5073, "today</w>": 5074, "وا": 5075, "را": 5076, "lik</w>": 5077, "Haupt": 5078, "полу": 5079, "व</w>": 5080, "largest</w>": 5081, "ボ": 5082, "govern": 5083, "apo": 5084, "avoir</w>": 5085, "Por</w>": 5086, "Dezember</w>": 5087, "రామం</w>": 5088, "Carl</w>": 5089, "k-": 5090, "الح": 5091, "ット</w>": 5092, "compar": 5093, "లు</w>": 5094, "ised</w>": 5095, "ними</w>": 5096, "ct</w>": 5097, "tain</w>": 5098, "ks": 5099, "более</w>": 5100, "families</w>": 5101, "ать</w>": 5102, "ды": 5103, "league</w>": 5104, "caso</w>": 5105, "南": 5106, "cut</w>": 5107, "C'</w>": 5108, "towards</w>": 5109, "gg": 5110, "eing": 5111, "ческой</w>": 5112, "pag": 5113, "क</w>": 5114, "meg</w>": 5115, "walked</w>": 5116, "glesbefolkat</w>": 5117, "elo</w>": 5118, "רו": 5119, "ه</w>": 5120, "研究</w>": 5121, "egen</w>": 5122, "Lee</w>": 5123, "eto</w>": 5124, "metal</w>": 5125, "clear</w>": 5126, "ych</w>": 5127, "kö": 5128, "Court</w>": 5129, "cing</w>": 5130, "り": 5131, "ил</w>": 5132, "kun": 5133, "через</w>": 5134, "throughout</w>": 5135, "セ": 5136, "цию</w>": 5137, "berg": 5138, "fle": 5139, "erhielt</w>": 5140, "Dol": 5141, "step": 5142, "человек</w>": 5143, "deren</w>": 5144, "study</w>": 5145, "Kas": 5146, "Tal": 5147, "believe</w>": 5148, "하는</w>": 5149, "yi</w>": 5150, "лась</w>": 5151, "now": 5152, "Kra": 5153, "direction</w>": 5154, "гу</w>": 5155, "integ": 5156, "時代</w>": 5157, "année</w>": 5158, "ビ": 5159, "рии</w>": 5160, "ands</w>": 5161, "pap": 5162, "väster</w>": 5163, "nation": 5164, "novembre</w>": 5165, "especially</w>": 5166, "בשנת</w>": 5167, "フ": 5168, "performed</w>": 5169, "1911</w>": 5170, "5.</w>": 5171, "現在</w>": 5172, "במ": 5173, "aja</w>": 5174, "リー</w>": 5175, "quale</w>": 5176, "Nov": 5177, "ников</w>": 5178, "äh": 5179, "eight</w>": 5180, "nika</w>": 5181, "provincia</w>": 5182, "pri</w>": 5183, "können</w>": 5184, "め</w>": 5185, "一个</w>": 5186, "emer": 5187, "ht</w>": 5188, "anys</w>": 5189, "causa</w>": 5190, "rz": 5191, "heit</w>": 5192, "mark</w>": 5193, "Arts</w>": 5194, "ný</w>": 5195, "Kirche</w>": 5196, "Chinese</w>": 5197, "khi</w>": 5198, "ö</w>": 5199, "Mé": 5200, "pay": 5201, "nordväst</w>": 5202, "till": 5203, "post</w>": 5204, "ונ": 5205, "што</w>": 5206, "encuentra</w>": 5207, "née</w>": 5208, "最</w>": 5209, "oto</w>": 5210, "anim": 5211, "ın</w>": 5212, "США</w>": 5213, "tou": 5214, "ė</w>": 5215, "Var": 5216, "centro</w>": 5217, "מי": 5218, "Sy": 5219, "كان</w>": 5220, "сі": 5221, "sko</w>": 5222, "1916</w>": 5223, "Au</w>": 5224, "quali": 5225, "rado</w>": 5226, "ار": 5227, "Sig": 5228, "ads</w>": 5229, "51</w>": 5230, "ihr</w>": 5231, "mid": 5232, "ческих</w>": 5233, "放送</w>": 5234, "ı</w>": 5235, "ней</w>": 5236, "49</w>": 5237, "cir": 5238, "54</w>": 5239, "size</w>": 5240, "ク</w>": 5241, "Lang": 5242, "temporada</w>": 5243, "longer</w>": 5244, "作品</w>": 5245, "cast": 5246, "hear</w>": 5247, "monde</w>": 5248, "spor": 5249, "uri": 5250, "tel</w>": 5251, "ше</w>": 5252, "ih</w>": 5253, "ess": 5254, "college</w>": 5255, "Ле": 5256, "kra": 5257, "nt</w>": 5258, "西</w>": 5259, "iny</w>": 5260, "jak</w>": 5261, "actually</w>": 5262, "бы": 5263, "היה</w>": 5264, "invit": 5265, "ட</w>": 5266, "books</w>": 5267, "ência</w>": 5268, "Bukid</w>": 5269, "sue</w>": 5270, "生": 5271, "tek": 5272, "elimin": 5273, "Pap": 5274, "dla</w>": 5275, "view</w>": 5276, "ו</w>": 5277, "de-": 5278, "así</w>": 5279, "quatre</w>": 5280, "disp": 5281, "coach</w>": 5282, "ws</w>": 5283, "省</w>": 5284, "bir": 5285, "sulla</w>": 5286, "ック</w>": 5287, "Deutschland</w>": 5288, "refer</w>": 5289, "iva</w>": 5290, "rod": 5291, "identi": 5292, "jan": 5293, "tại</w>": 5294, "гор": 5295, "ות</w>": 5296, "hö": 5297, "Con</w>": 5298, "alb": 5299, "originally</w>": 5300, "ites</w>": 5301, "Sw": 5302, "owned</w>": 5303, "России</w>": 5304, "Sand": 5305, "Airport</w>": 5306, "durant</w>": 5307, "Seit</w>": 5308, "ل</w>": 5309, "nih</w>": 5310, "ball": 5311, "mindre</w>": 5312, "alli": 5313, "moving</w>": 5314, "ests</w>": 5315, "ون</w>": 5316, "ف</w>": 5317, "ق</w>": 5318, "有": 5319, "diesem</w>": 5320, "ті</w>": 5321, "iske</w>": 5322, "Red": 5323, "路</w>": 5324, "Lit": 5325, "distrito</w>": 5326, "hood</w>": 5327, "金</w>": 5328, "ev</w>": 5329, "Ра": 5330, "cho": 5331, "бра": 5332, "akan</w>": 5333, "ются</w>": 5334, "ą": 5335, "tend": 5336, "~</w>": 5337, "దూరంలో</w>": 5338, "swe": 5339, "famille</w>": 5340, "ван</w>": 5341, "kuperad</w>": 5342, "ông</w>": 5343, "episode</w>": 5344, "publi": 5345, "haar</w>": 5346, "XX</w>": 5347, "ises</w>": 5348, "ят</w>": 5349, "culture</w>": 5350, "tos</w>": 5351, "lou": 5352, "samhälle</w>": 5353, "gek": 5354, "ジ": 5355, "morning</w>": 5356, "גם</w>": 5357, "professor</w>": 5358, "క</w>": 5359, "인</w>": 5360, "тре": 5361, "stata</w>": 5362, "enz": 5363, "Department</w>": 5364, "fou</w>": 5365, "wil": 5366, "ן</w>": 5367, "cks</w>": 5368, "stan": 5369, "שי": 5370, "lived</w>": 5371, "Pu": 5372, "successful</w>": 5373, "1908</w>": 5374, "ян": 5375, "ét": 5376, "tic</w>": 5377, "ит": 5378, "spent</w>": 5379, "completed</w>": 5380, "expla": 5381, "öl": 5382, "ники</w>": 5383, "ча</w>": 5384, "eig": 5385, "Ж": 5386, "ei": 5387, "river</w>": 5388, "பட</w>": 5389, "erne</w>": 5390, "ş": 5391, "Although</w>": 5392, "Tak": 5393, "sim": 5394, "هم</w>": 5395, "lines</w>": 5396, "norr</w>": 5397, "Ara": 5398, "reported</w>": 5399, "kontinente</w>": 5400, "pen</w>": 5401, "food</w>": 5402, "多": 5403, "25": 5404, "ero": 5405, "notamment</w>": 5406, "aff": 5407, "marzo</w>": 5408, "Africa</w>": 5409, "glan": 5410, "אי": 5411, "ків</w>": 5412, "zioni</w>": 5413, "ش</w>": 5414, "ura": 5415, "ces": 5416, "정": 5417, "So</w>": 5418, "olarak</w>": 5419, "gol": 5420, "ях</w>": 5421, "ond</w>": 5422, "san</w>": 5423, "leurs</w>": 5424, "Abril</w>": 5425, "aking</w>": 5426, "kr": 5427, "Mis": 5428, "Don</w>": 5429, "sac": 5430, "ßen</w>": 5431, "6.</w>": 5432, "skin</w>": 5433, "cause</w>": 5434, "над</w>": 5435, "Ly": 5436, "includes</w>": 5437, "cidade</w>": 5438, "presidente</w>": 5439, "Närmaste</w>": 5440, "Ц": 5441, "onto</w>": 5442, "shows</w>": 5443, "ダ": 5444, "チ": 5445, "ün": 5446, "eti</w>": 5447, "إ": 5448, "ска": 5449, "三": 5450, "habitants</w>": 5451, "muy</w>": 5452, "nh": 5453, "directed</w>": 5454, "Mes": 5455, "grandes</w>": 5456, "fir": 5457, "Ren": 5458, "leaving</w>": 5459, "安": 5460, "Ci": 5461, "テ": 5462, "eron</w>": 5463, "mig": 5464, "1905</w>": 5465, "spar": 5466, "lap": 5467, "gor": 5468, "groups</w>": 5469, "Saison</w>": 5470, "து</w>": 5471, "600</w>": 5472, "Act</w>": 5473, "enie</w>": 5474, "eld</w>": 5475, "했다</w>": 5476, "国": 5477, "Де": 5478, "hang": 5479, "tle</w>": 5480, "nära</w>": 5481, "sister</w>": 5482, "kaumahan</w>": 5483, "means</w>": 5484, "cours</w>": 5485, "тор": 5486, "Arch": 5487, "mental</w>": 5488, "هي</w>": 5489, "вать</w>": 5490, "ших</w>": 5491, "run": 5492, "ву</w>": 5493, "Not": 5494, "esch": 5495, "inn</w>": 5496, "saison</w>": 5497, "ön": 5498, "entire</w>": 5499, "arg": 5500, "ax": 5501, "ral": 5502, "tap": 5503, "iten</w>": 5504, "família</w>": 5505, "segundo</w>": 5506, "tek</w>": 5507, "formation</w>": 5508, "cant": 5509, "fel</w>": 5510, "got": 5511, "Daniel</w>": 5512, "voor": 5513, "cover</w>": 5514, "ys": 5515, "fight</w>": 5516, "god</w>": 5517, "期</w>": 5518, "tered</w>": 5519, "Saint</w>": 5520, "tipo</w>": 5521, "56</w>": 5522, "налази</w>": 5523, "vu</w>": 5524, "持</w>": 5525, "ande</w>": 5526, "junto</w>": 5527, "players</w>": 5528, "fort": 5529, "sons</w>": 5530, "800</w>": 5531, "uti</w>": 5532, "doesn</w>": 5533, "Canadian</w>": 5534, "ر</w>": 5535, "ات</w>": 5536, "know": 5537, "хи": 5538, "lem": 5539, "نا": 5540, "ß": 5541, "ved": 5542, "برای</w>": 5543, "bank</w>": 5544, "ples</w>": 5545, "sion": 5546, "aro</w>": 5547, "province</w>": 5548, "ال": 5549, "store</w>": 5550, "Florida</w>": 5551, "Се": 5552, "им</w>": 5553, "atu</w>": 5554, "だっ</w>": 5555, "geh": 5556, "lay": 5557, "c'</w>": 5558, "kasadpang</w>": 5559, "chten</w>": 5560, "ಸ</w>": 5561, "それ</w>": 5562, "ended</w>": 5563, "idi": 5564, "Mak": 5565, "став": 5566, "мат": 5567, "Johann</w>": 5568, "abril</w>": 5569, "winning</w>": 5570, "Grande</w>": 5571, "למ": 5572, "ners</w>": 5573, "ון</w>": 5574, "eda</w>": 5575, "oko</w>": 5576, "aya</w>": 5577, "Eng": 5578, "erung</w>": 5579, "לא</w>": 5580, "ues</w>": 5581, "Lam": 5582, "last": 5583, "ще</w>": 5584, "opera</w>": 5585, "ganska</w>": 5586, "ür": 5587, "arios</w>": 5588, "Nord</w>": 5589, "okay</w>": 5590, "گ": 5591, "består</w>": 5592, "자": 5593, "forms</w>": 5594, "ná</w>": 5595, "pes": 5596, "ovanligt</w>": 5597, "atu": 5598, "happened</w>": 5599, "kil": 5600, "gradu": 5601, "laug": 5602, "stopped</w>": 5603, "le-": 5604, "eus</w>": 5605, "inga</w>": 5606, "τους</w>": 5607, "acht</w>": 5608, "Since</w>": 5609, "fell</w>": 5610, "whis": 5611, "schools</w>": 5612, "iy": 5613, "erw": 5614, "アメリカ</w>": 5615, "jon": 5616, "ベ": 5617, "ム</w>": 5618, "aries</w>": 5619, "leader</w>": 5620, "amb": 5621, "Fil": 5622, "featured</w>": 5623, "aver": 5624, "ric</w>": 5625, "гі": 5626, "9-": 5627, "dur": 5628, "arly</w>": 5629, "Force</w>": 5630, "god": 5631, "nodded</w>": 5632, "zer</w>": 5633, "stay</w>": 5634, "ações</w>": 5635, "Eine</w>": 5636, "hier</w>": 5637, "ening</w>": 5638, "raised</w>": 5639, "În</w>": 5640, "attention</w>": 5641, "Little</w>": 5642, "col</w>": 5643, "три</w>": 5644, "Frank</w>": 5645, "書</w>": 5646, "Open</w>": 5647, "グ": 5648, "itself</w>": 5649, "etti</w>": 5650, "Guerra</w>": 5651, "ря": 5652, "question</w>": 5653, "så</w>": 5654, "deel</w>": 5655, "pays</w>": 5656, "iko</w>": 5657, "ля</w>": 5658, "見</w>": 5659, "C-": 5660, "hemiboreal</w>": 5661, "З</w>": 5662, "Lim": 5663, "holds</w>": 5664, "7.</w>": 5665, "ا</w>": 5666, "namngivna</w>": 5667, "2010.</w>": 5668, "source</w>": 5669, "stated</w>": 5670, "decor": 5671, "ological</w>": 5672, "thus</w>": 5673, "18.</w>": 5674, "Aut": 5675, "rop": 5676, "ек": 5677, "ком": 5678, "lau": 5679, "Minister</w>": 5680, "سي": 5681, "Land</w>": 5682, "Jack</w>": 5683, "الع": 5684, "ке": 5685, "53</w>": 5686, "rada</w>": 5687, "Jahrhundert</w>": 5688, "系</w>": 5689, "Mun": 5690, "бер": 5691, "ити</w>": 5692, "lagen</w>": 5693, "ക</w>": 5694, "ха</w>": 5695, "jud": 5696, "лет": 5697, "واقع</w>": 5698, "molupyo</w>": 5699, "lu</w>": 5700, "idos</w>": 5701, "သည</w>": 5702, "bru": 5703, "yo</w>": 5704, "future</w>": 5705, "figure</w>": 5706, "Der": 5707, "stru": 5708, "cos": 5709, "Op</w>": 5710, "deal</w>": 5711, "lio</w>": 5712, "8.</w>": 5713, "約</w>": 5714, "東京</w>": 5715, "tia</w>": 5716, "particular</w>": 5717, "Пер": 5718, "iet": 5719, "alo</w>": 5720, "сло": 5721, "ngày</w>": 5722, "pot</w>": 5723, "ells</w>": 5724, "1907</w>": 5725, "**": 5726, "eder</w>": 5727, "全": 5728, "Ha": 5729, "ort": 5730, "제": 5731, "orient": 5732, "او</w>": 5733, "pentru</w>": 5734, "contro</w>": 5735, "Jan</w>": 5736, "nom": 5737, "es-": 5738, "replaced</w>": 5739, "seg</w>": 5740, "9.</w>": 5741, "uv": 5742, "atau</w>": 5743, "até</w>": 5744, "listed</w>": 5745, "dai</w>": 5746, "pé": 5747, "below</w>": 5748, "自": 5749, "rar</w>": 5750, "équipe</w>": 5751, "24": 5752, "か": 5753, "natur": 5754, "US": 5755, "sor</w>": 5756, "older</w>": 5757, "Platz</w>": 5758, "habagatan-kasadpang</w>": 5759, "Dam": 5760, "centrala</w>": 5761, "Liga</w>": 5762, "י</w>": 5763, "ז": 5764, "Су": 5765, "הש": 5766, "spec": 5767, "España</w>": 5768, "水</w>": 5769, "ő": 5770, "pris": 5771, "nou</w>": 5772, "ction</w>": 5773, "schaften</w>": 5774, "Sir</w>": 5775, "saying</w>": 5776, "aged</w>": 5777, "non": 5778, "金": 5779, "Plan": 5780, "Carolina</w>": 5781, "sign": 5782, "mant": 5783, "ume</w>": 5784, "status</w>": 5785, "provided</w>": 5786, "Rec": 5787, "Према</w>": 5788, "фі": 5789, "ву": 5790, "deutschen</w>": 5791, "ев</w>": 5792, "Argentina</w>": 5793, "spe": 5794, "gang</w>": 5795, "tico</w>": 5796, "gent": 5797, "הי": 5798, "lanaw</w>": 5799, "mundo</w>": 5800, "海": 5801, "بر</w>": 5802, "cour": 5803, "Après</w>": 5804, "ñ": 5805, "ordin": 5806, "erano</w>": 5807, "6.": 5808, "esto</w>": 5809, "número</w>": 5810, "nam</w>": 5811, "nordost</w>": 5812, "Hen": 5813, "ott": 5814, "可能</w>": 5815, "incre": 5816, "Under</w>": 5817, "Dun": 5818, "היא</w>": 5819, "ای</w>": 5820, "58</w>": 5821, "cultural</w>": 5822, "α</w>": 5823, "female</w>": 5824, "Mitglied</w>": 5825, "Its</w>": 5826, "дер": 5827, "ieren</w>": 5828, "tol": 5829, "rus": 5830, "beginning</w>": 5831, "nomin": 5832, "stadt</w>": 5833, "syn": 5834, "bis": 5835, "aban</w>": 5836, "ros": 5837, "ods</w>": 5838, "와</w>": 5839, "qual</w>": 5840, "ट</w>": 5841, "denen</w>": 5842, "dies</w>": 5843, "ires</w>": 5844, "ських</w>": 5845, "bli": 5846, "vu": 5847, "Tan": 5848, "cal</w>": 5849, "tigen</w>": 5850, "они</w>": 5851, "Jones</w>": 5852, "civil</w>": 5853, "nowiki</w>": 5854, "straße</w>": 5855, "fins</w>": 5856, "با": 5857, "ket": 5858, "eli": 5859, "Brown</w>": 5860, "پ": 5861, "11": 5862, "Tom</w>": 5863, "whose</w>": 5864, "rick</w>": 5865, "ningen</w>": 5866, "ع</w>": 5867, "Fri": 5868, "lav": 5869, "meng": 5870, "defen": 5871, "ポ": 5872, "Os": 5873, "faire</w>": 5874, "anza</w>": 5875, "ias</w>": 5876, "rage</w>": 5877, "fig": 5878, "부": 5879, "suoi</w>": 5880, "B-": 5881, "vun</w>": 5882, "ander</w>": 5883, "iden</w>": 5884, "万</w>": 5885, "breath</w>": 5886, "定</w>": 5887, "також</w>": 5888, "ями</w>": 5889, "יי": 5890, "נו": 5891, "デ": 5892, "previous</w>": 5893, "má": 5894, "bridge</w>": 5895, "文": 5896, "Pierre</w>": 5897, "actor</w>": 5898, "popul": 5899, "ور": 5900, "alist</w>": 5901, "கு</w>": 5902, "associ": 5903, "jeho</w>": 5904, "Η</w>": 5905, "הו": 5906, "respon": 5907, "także</w>": 5908, "illo</w>": 5909, "Wilhelm</w>": 5910, "זה</w>": 5911, "ا": 5912, "1906</w>": 5913, "inform": 5914, "بين</w>": 5915, "Februar</w>": 5916, "Wer": 5917, "Barcelona</w>": 5918, "Ba": 5919, "byla</w>": 5920, "Fylke</w>": 5921, "grand</w>": 5922, "он": 5923, "thir": 5924, "sam</w>": 5925, "regular</w>": 5926, "states</w>": 5927, "57</w>": 5928, "인": 5929, "郡</w>": 5930, "đó</w>": 5931, "-se</w>": 5932, "quan</w>": 5933, "Cy": 5934, "owego</w>": 5935, "tiva</w>": 5936, "סי": 5937, "Auch</w>": 5938, "sch</w>": 5939, "tet": 5940, "بن</w>": 5941, "政府</w>": 5942, "eder": 5943, "summer</w>": 5944, "南</w>": 5945, "Awards</w>": 5946, "kg</w>": 5947, "resp": 5948, "inner</w>": 5949, "لا": 5950, "gemeente</w>": 5951, "kte</w>": 5952, "30": 5953, "ote</w>": 5954, "Lan": 5955, "countries</w>": 5956, "plant": 5957, "autre</w>": 5958, "kill</w>": 5959, "း": 5960, "ends</w>": 5961, "iche</w>": 5962, "fully</w>": 5963, "ean</w>": 5964, "米</w>": 5965, "idade</w>": 5966, "ała</w>": 5967, "Zealand</w>": 5968, "Two</w>": 5969, "Russian</w>": 5970, "equipo</w>": 5971, "Wor": 5972, "ках</w>": 5973, "Albert</w>": 5974, "Ан": 5975, "hid": 5976, "altri</w>": 5977, "Ta": 5978, "ві</w>": 5979, "alta</w>": 5980, "cont": 5981, "До": 5982, "А</w>": 5983, "cast</w>": 5984, "ond": 5985, "kar</w>": 5986, "க</w>": 5987, "È</w>": 5988, "Portugal</w>": 5989, "95</w>": 5990, "kw": 5991, "ishing</w>": 5992, "Japanese</w>": 5993, "하였다</w>": 5994, "Pel": 5995, "ما": 5996, "ough</w>": 5997, "stesso</w>": 5998, "مت": 5999, "85</w>": 6000, "Dal": 6001, "influ": 6002, "alit": 6003, "Valley</w>": 6004, "только</w>": 6005, "Day</w>": 6006, "Ir": 6007, "Mont": 6008, "couple</w>": 6009, "related</w>": 6010, "ared</w>": 6011, "Vis": 6012, "后</w>": 6013, "ahan</w>": 6014, "andre</w>": 6015, "star</w>": 6016, "separ": 6017, "ian": 6018, "тро": 6019, "eds</w>": 6020, "U-": 6021, "E.</w>": 6022, "ב-": 6023, "uten</w>": 6024, "Mos": 6025, "世</w>": 6026, "hem</w>": 6027, "desig": 6028, "th-": 6029, "Wales</w>": 6030, "công</w>": 6031, "7.": 6032, "forced</w>": 6033, "נה</w>": 6034, "Star": 6035, "士</w>": 6036, "reti": 6037, "ately</w>": 6038, "opening</w>": 6039, "į</w>": 6040, "jam": 6041, "matter</w>": 6042, "pes</w>": 6043, "enter": 6044, "Me</w>": 6045, "island</w>": 6046, "My</w>": 6047, "writing</w>": 6048, "iga</w>": 6049, "ingly</w>": 6050, "מה</w>": 6051, "между</w>": 6052, "earlier</w>": 6053, "twee</w>": 6054, "inten": 6055, "ables</w>": 6056, "என</w>": 6057, "avi": 6058, "ров": 6059, "які</w>": 6060, "59</w>": 6061, "Is": 6062, "modo</w>": 6063, "bert</w>": 6064, "joka</w>": 6065, "música</w>": 6066, "fit": 6067, "社</w>": 6068, "чу": 6069, "дан": 6070, "Ру": 6071, "ect": 6072, "degree</w>": 6073, "Av": 6074, "thể</w>": 6075, "скую</w>": 6076, "ур": 6077, "知</w>": 6078, "Israel</w>": 6079, "nearly</w>": 6080, "아": 6081, "awarded</w>": 6082, "aal</w>": 6083, "hr": 6084, "Bank</w>": 6085, "ن</w>": 6086, "hav": 6087, "market</w>": 6088, "сы": 6089, "Green</w>": 6090, "magazine</w>": 6091, "ann</w>": 6092, "ді</w>": 6093, "inwoners</w>": 6094, "worth</w>": 6095, "eer": 6096, "posto</w>": 6097, "ос": 6098, "4,": 6099, "sempre</w>": 6100, "requ": 6101, "fingers</w>": 6102, "ows</w>": 6103, "官</w>": 6104, "ie": 6105, "nach": 6106, "Kategoriya</w>": 6107, "surface</w>": 6108, "dig</w>": 6109, "1909</w>": 6110, "hy</w>": 6111, "15.</w>": 6112, "nahm</w>": 6113, "tidak</w>": 6114, "Но": 6115, "بي": 6116, "ský</w>": 6117, "hé": 6118, "동": 6119, "與": 6120, "yd": 6121, "Fue</w>": 6122, "teil</w>": 6123, "ан</w>": 6124, "sort</w>": 6125, "лся</w>": 6126, "progres": 6127, "pendant</w>": 6128, "aks</w>": 6129, "oti": 6130, "comune</w>": 6131, "pted</w>": 6132, "23": 6133, "ческого</w>": 6134, "lak": 6135, "주": 6136, "東</w>": 6137, "origine</w>": 6138, "allow</w>": 6139, "ram</w>": 6140, "تا</w>": 6141, "eks</w>": 6142, "menjadi</w>": 6143, "standard</w>": 6144, "visit": 6145, "sehr</w>": 6146, "án": 6147, "först</w>": 6148, "H.</w>": 6149, "明</w>": 6150, "damit</w>": 6151, "Chile</w>": 6152, "Tab": 6153, "contract</w>": 6154, "tim": 6155, "ад": 6156, "heavy</w>": 6157, "Gol": 6158, "ల</w>": 6159, "gar</w>": 6160, "novel</w>": 6161, "rum</w>": 6162, "Do": 6163, "ur.</w>": 6164, "minister</w>": 6165, "ノ": 6166, "sop": 6167, "oy</w>": 6168, "Cel": 6169, "oli": 6170, "66</w>": 6171, "hell</w>": 6172, "makes</w>": 6173, "Pennsylvania</w>": 6174, "Cab": 6175, "بو": 6176, "向</w>": 6177, "zam": 6178, "Ven": 6179, "nev": 6180, "72</w>": 6181, "punto</w>": 6182, "true</w>": 6183, "СССР</w>": 6184, "walog</w>": 6185, "région</w>": 6186, "feld</w>": 6187, "isi": 6188, "zurück</w>": 6189, "poder</w>": 6190, "itz": 6191, "fall": 6192, "kel</w>": 6193, "Та": 6194, "Tam": 6195, "covered</w>": 6196, "ён</w>": 6197, "正": 6198, "Lat": 6199, "amo</w>": 6200, "science</w>": 6201, "eth": 6202, "לאחר</w>": 6203, "west": 6204, "состав</w>": 6205, "mate</w>": 6206, "ў": 6207, "کا</w>": 6208, "呼</w>": 6209, "interest</w>": 6210, "кла": 6211, "ος</w>": 6212, "города</w>": 6213, "dz": 6214, "về</w>": 6215, "tai</w>": 6216, "ling": 6217, "ration</w>": 6218, "Hom": 6219, "Real</w>": 6220, "ix": 6221, "aircraft</w>": 6222, "ത</w>": 6223, "break</w>": 6224, "loss</w>": 6225, "ním</w>": 6226, "anyone</w>": 6227, "Hand": 6228, "про</w>": 6229, "dân</w>": 6230, "blue</w>": 6231, "everyone</w>": 6232, "мор": 6233, "고": 6234, "chest</w>": 6235, "hanno</w>": 6236, "вых</w>": 6237, "conten": 6238, "mä": 6239, "entered</w>": 6240, "siglo</w>": 6241, "斯</w>": 6242, "win": 6243, "introduced</w>": 6244, "atives</w>": 6245, "되었다</w>": 6246, "bud": 6247, "לה</w>": 6248, "complete</w>": 6249, "分": 6250, "5.": 6251, "ery</w>": 6252, "代表</w>": 6253, "söder</w>": 6254, "tow": 6255, "مو": 6256, "Dec": 6257, "durch": 6258, "하고</w>": 6259, "曲</w>": 6260, "合</w>": 6261, "stro": 6262, "momento</w>": 6263, "Anna</w>": 6264, "AS": 6265, "ligt</w>": 6266, "clas": 6267, "bloc": 6268, "jun": 6269, "padre</w>": 6270, "представ": 6271, "Groß": 6272, "Williams</w>": 6273, "دارد</w>": 6274, "Auf</w>": 6275, "actual</w>": 6276, "vas": 6277, "gio</w>": 6278, "ental</w>": 6279, "ators</w>": 6280, "یا</w>": 6281, "î": 6282, "vel</w>": 6283, "中心</w>": 6284, "bes</w>": 6285, "ディ": 6286, "aned</w>": 6287, "compet": 6288, "versch": 6289, "ления</w>": 6290, "tras</w>": 6291, "smiled</w>": 6292, "R.</w>": 6293, "量</w>": 6294, "job</w>": 6295, "Lord</w>": 6296, "Serie</w>": 6297, "success</w>": 6298, "phot": 6299, "bran": 6300, "ті": 6301, "foram</w>": 6302, "די</w>": 6303, "để</w>": 6304, "zie</w>": 6305, "ру</w>": 6306, "titre</w>": 6307, "cked</w>": 6308, "provide</w>": 6309, "場合</w>": 6310, "lig</w>": 6311, "arte</w>": 6312, "Navy</w>": 6313, "স</w>": 6314, "ју</w>": 6315, "movement</w>": 6316, "lower</w>": 6317, "성": 6318, "May": 6319, "sag": 6320, "Ontario</w>": 6321, "statt</w>": 6322, "Italian</w>": 6323, "iger</w>": 6324, "huvudsakligen</w>": 6325, "Star</w>": 6326, "fte</w>": 6327, "Mur": 6328, "secondo</w>": 6329, "bekannt</w>": 6330, "ät": 6331, "maj</w>": 6332, "inos</w>": 6333, "ege</w>": 6334, "nau": 6335, "capit": 6336, "ça</w>": 6337, "Ме": 6338, "encore</w>": 6339, "스": 6340, "против</w>": 6341, "ок": 6342, "Empire</w>": 6343, "feeling</w>": 6344, "giving</w>": 6345, "S-": 6346, "Gran": 6347, "會": 6348, "rei</w>": 6349, "ril": 6350, "насеље</w>": 6351, "اور</w>": 6352, "受け</w>": 6353, "în": 6354, "Bir": 6355, "collection</w>": 6356, "competition</w>": 6357, "bad": 6358, "時": 6359, "hai</w>": 6360, "Marie</w>": 6361, "1904</w>": 6362, "circa</w>": 6363, "外": 6364, "וי": 6365, "Ireland</w>": 6366, "miles</w>": 6367, "ax</w>": 6368, "strat": 6369, "色</w>": 6370, "Northern</w>": 6371, "áu</w>": 6372, "行": 6373, "lac": 6374, "oria</w>": 6375, "high": 6376, "Cast": 6377, "dag</w>": 6378, "він</w>": 6379, "ble": 6380, "wegen</w>": 6381, "斯": 6382, "ask</w>": 6383, "수</w>": 6384, "которые</w>": 6385, "buildings</w>": 6386, "боль": 6387, "ث": 6388, "min</w>": 6389, "cerca</w>": 6390, "17.</w>": 6391, "rio</w>": 6392, "Nova</w>": 6393, "tz": 6394, "ی</w>": 6395, "То": 6396, "Stadt": 6397, "compl": 6398, "telah</w>": 6399, "hadde</w>": 6400, "bev": 6401, "Río</w>": 6402, "quân</w>": 6403, "lieu</w>": 6404, "utiliz": 6405, "고</w>": 6406, "seguito</w>": 6407, "Ost": 6408, "irs</w>": 6409, "спо": 6410, "ї": 6411, "Fo": 6412, "aver</w>": 6413, "4.": 6414, "teur</w>": 6415, "lock</w>": 6416, "gas": 6417, "kas</w>": 6418, "male</w>": 6419, "zunächst</w>": 6420, "sey</w>": 6421, "regionen</w>": 6422, "уч": 6423, "problem</w>": 6424, "dis</w>": 6425, "台</w>": 6426, "fourth</w>": 6427, "mir": 6428, "bị</w>": 6429, "voc": 6430, "weg</w>": 6431, "są</w>": 6432, "rights</w>": 6433, "Für</w>": 6434, "meet</w>": 6435, "初</w>": 6436, "Το</w>": 6437, "16.</w>": 6438, "Toppen</w>": 6439, "samt</w>": 6440, "weeks</w>": 6441, "ō</w>": 6442, "62</w>": 6443, "Nam</w>": 6444, "rer</w>": 6445, "acy</w>": 6446, "Chi": 6447, "Deb": 6448, "Pedro</w>": 6449, "conven": 6450, "地": 6451, "elen</w>": 6452, "stagione</w>": 6453, "invol": 6454, "unha</w>": 6455, "все</w>": 6456, "лось</w>": 6457, "uj": 6458, "Oktubre</w>": 6459, "P.</w>": 6460, "сь</w>": 6461, "보": 6462, "мет": 6463, "ail": 6464, "Ran": 6465, "原</w>": 6466, "área</w>": 6467, "ové</w>": 6468, "hoa</w>": 6469, "holding</w>": 6470, "să</w>": 6471, "ira": 6472, "Fol": 6473, "сте": 6474, "gun</w>": 6475, "sj": 6476, "zusammen</w>": 6477, "simple</w>": 6478, "Bu</w>": 6479, "ían</w>": 6480, "hem": 6481, "бор": 6482, "ці": 6483, "tav": 6484, "dello</w>": 6485, "IS": 6486, "ington</w>": 6487, "120</w>": 6488, "لا</w>": 6489, "Bri": 6490, "gold</w>": 6491, "reli": 6492, "reason</w>": 6493, "شود</w>": 6494, "él</w>": 6495, "dir": 6496, "jet": 6497, "ione</w>": 6498, "Mine</w>": 6499, "Sin": 6500, "yan": 6501, "無": 6502, "ality</w>": 6503, "sport</w>": 6504, "живело</w>": 6505, "就</w>": 6506, "pass</w>": 6507, "aveva</w>": 6508, "kes</w>": 6509, "usi</w>": 6510, "signific": 6511, "しかし</w>": 6512, "steht</w>": 6513, "följande</w>": 6514, "zes</w>": 6515, "Sur": 6516, "重": 6517, "guerre</w>": 6518, "exclu": 6519, "cs</w>": 6520, "như</w>": 6521, "存在</w>": 6522, "systems</w>": 6523, "distance</w>": 6524, "手": 6525, "keine</w>": 6526, "Bungtod</w>": 6527, "deci": 6528, "edition</w>": 6529, "takes</w>": 6530, "主": 6531, "Lar": 6532, "rol</w>": 6533, "Med": 6534, "63</w>": 6535, "hil": 6536, "devient</w>": 6537, "250</w>": 6538, "野</w>": 6539, "test</w>": 6540, "Times</w>": 6541, "jej</w>": 6542, "zeit</w>": 6543, "Gesch": 6544, "隊</w>": 6545, "sty": 6546, "Other</w>": 6547, "сен": 6548, "като</w>": 6549, "前": 6550, "外</w>": 6551, "sci": 6552, "VI</w>": 6553, "maj": 6554, "cap</w>": 6555, "مي": 6556, "jak": 6557, "або</w>": 6558, "mechan": 6559, "street</w>": 6560, "oval</w>": 6561, "hur": 6562, "בין</w>": 6563, "Tel": 6564, "army</w>": 6565, "ihren</w>": 6566, "名": 6567, "issue</w>": 6568, "vac": 6569, "вен": 6570, "най": 6571, "nya</w>": 6572, "ك</w>": 6573, "poco</w>": 6574, "№</w>": 6575, "الج": 6576, "abandon": 6577, "aste</w>": 6578, "法": 6579, "因</w>": 6580, "lit</w>": 6581, "Бу": 6582, "Str": 6583, "ర</w>": 6584, "dere</w>": 6585, "segu": 6586, "eil": 6587, "או</w>": 6588, "fas": 6589, "اس": 6590, "shook</w>": 6591, "Station</w>": 6592, "vers": 6593, "meeting</w>": 6594, "iri": 6595, "allo</w>": 6596, "ged": 6597, "Johnson</w>": 6598, "Une</w>": 6599, "Den": 6600, "anger</w>": 6601, "ре</w>": 6602, "pare</w>": 6603, "67</w>": 6604, "98</w>": 6605, "mers</w>": 6606, "serve</w>": 6607, "الن": 6608, "sitt</w>": 6609, "ium</w>": 6610, "peu</w>": 6611, "Republic</w>": 6612, "קו": 6613, "bare</w>": 6614, "海</w>": 6615, "кі": 6616, "husband</w>": 6617, "дав": 6618, "length</w>": 6619, "befindet</w>": 6620, "поло": 6621, "allem</w>": 6622, "Centre</w>": 6623, "bt</w>": 6624, "Namen</w>": 6625, "73</w>": 6626, "Most</w>": 6627, "место</w>": 6628, "questa</w>": 6629, "ovi</w>": 6630, "ías</w>": 6631, "Fal": 6632, "•</w>": 6633, "mô</w>": 6634, "morte</w>": 6635, "AR": 6636, "stand": 6637, "DVD</w>": 6638, "Vil": 6639, "municipio</w>": 6640, "On": 6641, "leg</w>": 6642, "Entre</w>": 6643, "жения</w>": 6644, "lot": 6645, "ナ</w>": 6646, "ני": 6647, "tum": 6648, "nin</w>": 6649, "campo</w>": 6650, "Asia</w>": 6651, "ossa</w>": 6652, "comes</w>": 6653, "lay</w>": 6654, "lik": 6655, "Ort</w>": 6656, "bun": 6657, "ump": 6658, "ings": 6659, "Mod": 6660, "low": 6661, "Scott</w>": 6662, "walk</w>": 6663, "Spanish</w>": 6664, "esp": 6665, "신": 6666, "ien": 6667, "vag": 6668, "ф</w>": 6669, "bos": 6670, "rot": 6671, "sugg": 6672, "ск</w>": 6673, "ロ</w>": 6674, "ген": 6675, "tous</w>": 6676, "runs</w>": 6677, "кі</w>": 6678, "flu": 6679, "sku</w>": 6680, "館</w>": 6681, "eleg": 6682, "festival</w>": 6683, "сов</w>": 6684, "Dem": 6685, "Pod": 6686, "imi</w>": 6687, "ine": 6688, "ül": 6689, "tard</w>": 6690, "tex": 6691, "один</w>": 6692, "census</w>": 6693, "yk": 6694, "cli": 6695, "ине</w>": 6696, "공": 6697, "wn</w>": 6698, "fted</w>": 6699, "кри": 6700, "Victoria</w>": 6701, "Kingdom</w>": 6702, "adop": 6703, "ského</w>": 6704, "micro": 6705, "Lib": 6706, "motor": 6707, "рия</w>": 6708, "jsou</w>": 6709, "plant</w>": 6710, "uts</w>": 6711, "Kre": 6712, "aine</w>": 6713, "під": 6714, "quien</w>": 6715, "通</w>": 6716, "פי": 6717, "favor": 6718, "oon</w>": 6719, "tiempo</w>": 6720, "hade</w>": 6721, "ты": 6722, "רי": 6723, "през</w>": 6724, "oden</w>": 6725, "Beg": 6726, "장": 6727, "入": 6728, "ß</w>": 6729, "sự</w>": 6730, "സ</w>": 6731, "61</w>": 6732, "Super</w>": 6733, "ತು</w>": 6734, "Ä": 6735, "bet</w>": 6736, "nut": 6737, "nalazi</w>": 6738, "actions</w>": 6739, "чно</w>": 6740, "jes": 6741, "bau</w>": 6742, "ło</w>": 6743, "uti": 6744, "ht": 6745, "situation</w>": 6746, "lö": 6747, "eme</w>": 6748, "goal</w>": 6749, "Во</w>": 6750, "inas</w>": 6751, "ью</w>": 6752, "бел": 6753, "meant</w>": 6754, "стан": 6755, "rar": 6756, "weitere</w>": 6757, "Ο</w>": 6758, "ater</w>": 6759, "ready</w>": 6760, "enge</w>": 6761, "a.</w>": 6762, "dw": 6763, "scored</w>": 6764, "L.</w>": 6765, "Hon": 6766, "Grund": 6767, "Service</w>": 6768, "lev": 6769, "unit</w>": 6770, "første</w>": 6771, "allen</w>": 6772, "ено</w>": 6773, "oy": 6774, "Kir": 6775, "Committee</w>": 6776, "kaayo</w>": 6777, "유": 6778, "ê</w>": 6779, "마": 6780, "green</w>": 6781, "cles</w>": 6782, "вана</w>": 6783, "ých</w>": 6784, "ера</w>": 6785, "attended</w>": 6786, "言</w>": 6787, "הנ": 6788, "atore</w>": 6789, "Francia</w>": 6790, "पर</w>": 6791, "ником</w>": 6792, "ض": 6793, "висини</w>": 6794, "vision</w>": 6795, "бро": 6796, "דה</w>": 6797, "trên</w>": 6798, "Кар": 6799, "Vel": 6800, "오": 6801, "насељу</w>": 6802, "Indi": 6803, "ied</w>": 6804, "historia</w>": 6805, "wir": 6806, "W.</w>": 6807, "battle</w>": 6808, "quite</w>": 6809, "piano</w>": 6810, "без</w>": 6811, "ngadto</w>": 6812, "די": 6813, "ден</w>": 6814, "begann</w>": 6815, "бы</w>": 6816, "×</w>": 6817, "ual</w>": 6818, "nature</w>": 6819, "whom</w>": 6820, "ains</w>": 6821, "sted</w>": 6822, "Els</w>": 6823, "選手</w>": 6824, "x-": 6825, "神": 6826, "hot</w>": 6827, "нами</w>": 6828, "elling</w>": 6829, "ouse</w>": 6830, "Rome</w>": 6831, "African</w>": 6832, "doc": 6833, "اس</w>": 6834, "ח</w>": 6835, "加": 6836, "esi": 6837, "войны</w>": 6838, "immer</w>": 6839, "與</w>": 6840, "gez": 6841, "roman": 6842, "Bay": 6843, "paper</w>": 6844, "dern</w>": 6845, "gru": 6846, "individual</w>": 6847, "disput": 6848, "或</w>": 6849, "ró": 6850, "ography</w>": 6851, "nich</w>": 6852, "gli": 6853, "äng": 6854, "collec": 6855, "надморској</w>": 6856, "jar": 6857, "کرد</w>": 6858, "defeated</w>": 6859, "odes</w>": 6860, "població</w>": 6861, "The": 6862, "81</w>": 6863, "Para</w>": 6864, "1903</w>": 6865, "ably</w>": 6866, "owany</w>": 6867, "master</w>": 6868, "1901</w>": 6869, "5,": 6870, "Jackson</w>": 6871, "autor": 6872, "continue</w>": 6873, "68</w>": 6874, "sede</w>": 6875, "pop</w>": 6876, "ky": 6877, "Luis</w>": 6878, "этого</w>": 6879, "sydväst</w>": 6880, "並": 6881, "ま": 6882, "оп": 6883, "Seine</w>": 6884, "А.</w>": 6885, "lei</w>": 6886, "pping</w>": 6887, "हैं</w>": 6888, "Professor</w>": 6889, "党</w>": 6890, "стве</w>": 6891, "embargo</w>": 6892, "Esp": 6893, "cos</w>": 6894, "themselves</w>": 6895, "minist": 6896, "вание</w>": 6897, "mare</w>": 6898, "الق": 6899, "obser": 6900, "য</w>": 6901, "派</w>": 6902, "concern": 6903, "mens</w>": 6904, "molto</w>": 6905, "Pil": 6906, "eye</w>": 6907, "Ohio</w>": 6908, "၊</w>": 6909, "cus</w>": 6910, "ationen</w>": 6911, "הע": 6912, "한다</w>": 6913, "нь</w>": 6914, "Kin": 6915, "hin</w>": 6916, "ία</w>": 6917, "Queen</w>": 6918, "accu": 6919, "ור": 6920, "što</w>": 6921, "box</w>": 6922, "norte</w>": 6923, "caught</w>": 6924, "recog": 6925, "chte</w>": 6926, "Québec</w>": 6927, "وی</w>": 6928, "dav": 6929, "omet": 6930, "approximately</w>": 6931, "hay</w>": 6932, "Hän</w>": 6933, "cav": 6934, "Bill</w>": 6935, "campaign</w>": 6936, "iš": 6937, "德": 6938, "Young</w>": 6939, "général</w>": 6940, "units</w>": 6941, "anti-": 6942, "プ": 6943, "Games</w>": 6944, "14.</w>": 6945, "nouveau</w>": 6946, "soit</w>": 6947, "74</w>": 6948, "vig": 6949, "وأ": 6950, "ení</w>": 6951, "вра": 6952, "sport": 6953, "Sohn</w>": 6954, "verw": 6955, "short": 6956, "inclu": 6957, "Wol": 6958, "1902</w>": 6959, "periodo</w>": 6960, "кре": 6961, "ché</w>": 6962, "chính</w>": 6963, "spr": 6964, "ף</w>": 6965, "Fort</w>": 6966, "Лу": 6967, "реки</w>": 6968, "教": 6969, "属</w>": 6970, "ları</w>": 6971, "át": 6972, "pain</w>": 6973, "bajo</w>": 6974, "trac": 6975, "чен": 6976, "Pl": 6977, "siendo</w>": 6978, "Nam": 6979, "news</w>": 6980, "під</w>": 6981, "Boston</w>": 6982, "Punta</w>": 6983, "tin</w>": 6984, "nä": 6985, "county</w>": 6986, "న": 6987, "cases</w>": 6988, "Pada</w>": 6989, "asa</w>": 6990, "trat</w>": 6991, "Geb": 6992, "zo": 6993, "도": 6994, "Esta</w>": 6995, "א</w>": 6996, "exhib": 6997, "戦": 6998, "zn": 6999, "We</w>": 7000, "pers</w>": 7001, "Jakarta</w>": 7002, "principale</w>": 7003, "итель": 7004, "bag": 7005, "aur": 7006, "även</w>": 7007, "estim": 7008, "read</w>": 7009, "nos": 7010, "этом</w>": 7011, "Bru": 7012, "antly</w>": 7013, "energy</w>": 7014, "hä": 7015, "നു</w>": 7016, "тів</w>": 7017, "sob": 7018, "camp</w>": 7019, "في": 7020, "員</w>": 7021, "New": 7022, "AT": 7023, "nak": 7024, "לו": 7025, "има</w>": 7026, "multi": 7027, "cis": 7028, "studied</w>": 7029, "Album</w>": 7030, "ș": 7031, "plays</w>": 7032, "jum": 7033, "geg": 7034, "ем": 7035, "syfta</w>": 7036, "13.</w>": 7037, "clos": 7038, "ने</w>": 7039, "8.": 7040, "sydost</w>": 7041, "alter": 7042, "Walter</w>": 7043, "trä": 7044, "ned": 7045, "eding</w>": 7046, "tige</w>": 7047, "studi": 7048, "inv": 7049, "sist": 7050, "erna</w>": 7051, "以下</w>": 7052, "Nieder": 7053, "Bul": 7054, "도</w>": 7055, "ft": 7056, "ener</w>": 7057, "bb": 7058, "ピ": 7059, "consum": 7060, "Oper": 7061, "tus</w>": 7062, "normal</w>": 7063, "T-": 7064, "84</w>": 7065, "slowly</w>": 7066, "anus</w>": 7067, "gin": 7068, "sud": 7069, "jed": 7070, "Blue</w>": 7071, "milit": 7072, "helped</w>": 7073, "Santiago</w>": 7074, "María</w>": 7075, "two-": 7076, "eles</w>": 7077, "BBC</w>": 7078, "克": 7079, "tarde</w>": 7080, "হয</w>": 7081, "bzw.</w>": 7082, "gh": 7083, "lich": 7084, "tes": 7085, "rea</w>": 7086, "Old</w>": 7087, "residen": 7088, "acti": 7089, "hen</w>": 7090, "ole": 7091, "managed</w>": 7092, "вати</w>": 7093, "hospital</w>": 7094, "nosti</w>": 7095, "活動</w>": 7096, "Bil": 7097, "lain</w>": 7098, "places</w>": 7099, "offered</w>": 7100, "esen</w>": 7101, "із</w>": 7102, "shoulder</w>": 7103, "вання</w>": 7104, "ester</w>": 7105, "لي": 7106, "past": 7107, "thinking</w>": 7108, "尔": 7109, "pau": 7110, "率</w>": 7111, "北</w>": 7112, "aram</w>": 7113, "platt</w>": 7114, "около</w>": 7115, "ome</w>": 7116, "appearance</w>": 7117, "nationale</w>": 7118, "Bot": 7119, "ān</w>": 7120, "occup": 7121, "dil": 7122, "93</w>": 7123, "スト": 7124, "museum</w>": 7125, "yeah</w>": 7126, "ил": 7127, "significant</w>": 7128, "southern</w>": 7129, "itu": 7130, "氏</w>": 7131, "student</w>": 7132, "ize</w>": 7133, "Sor": 7134, "دي": 7135, "制</w>": 7136, "wonder": 7137, "iling</w>": 7138, "middle</w>": 7139, "Vill": 7140, "transl": 7141, "northern</w>": 7142, "Ing": 7143, "Uni": 7144, "ays</w>": 7145, "tut": 7146, "train</w>": 7147, "రామంలో</w>": 7148, "syahan</w>": 7149, "nah": 7150, "ידי</w>": 7151, "after": 7152, "мі</w>": 7153, "ший</w>": 7154, "Let": 7155, "Heinrich</w>": 7156, "sjö</w>": 7157, "cket</w>": 7158, "Top</w>": 7159, "homes</w>": 7160, "koja</w>": 7161, "تو": 7162, "complet": 7163, "ních</w>": 7164, "sí": 7165, "neck</w>": 7166, "mostly</w>": 7167, "فر": 7168, "kri": 7169, "який</w>": 7170, "writer</w>": 7171, "Lor": 7172, "immediately</w>": 7173, "92</w>": 7174, "pt</w>": 7175, "була</w>": 7176, "independent</w>": 7177, "pair</w>": 7178, "Sem": 7179, "ის</w>": 7180, "kten</w>": 7181, "能</w>": 7182, "szer": 7183, "99</w>": 7184, "Arthur</w>": 7185, "Som": 7186, "article</w>": 7187, "urg": 7188, "무": 7189, "uro": 7190, "Familie</w>": 7191, "AC": 7192, "зі</w>": 7193, "lub</w>": 7194, "itel": 7195, "Mus": 7196, "フィ": 7197, "Ки": 7198, "Sti": 7199, "ě": 7200, "minute</w>": 7201, "Prix</w>": 7202, "mondiale</w>": 7203, "лен</w>": 7204, "文</w>": 7205, "staff</w>": 7206, "sid": 7207, "Il": 7208, "ис": 7209, "lok": 7210, "clo": 7211, "organization</w>": 7212, "Pon": 7213, "Ul": 7214, "kab": 7215, "Hil": 7216, "eit": 7217, "manufac": 7218, "If</w>": 7219, "дов": 7220, "Mul": 7221, "ois</w>": 7222, "Berg": 7223, "Long</w>": 7224, "lista</w>": 7225, "ebenfalls</w>": 7226, "previously</w>": 7227, "thy</w>": 7228, "彼</w>": 7229, "Provincia</w>": 7230, "pow": 7231, "rav": 7232, "поч": 7233, "12.</w>": 7234, "ون": 7235, "rose</w>": 7236, "ление</w>": 7237, "furono</w>": 7238, "området</w>": 7239, "мер": 7240, "mic": 7241, "famous</w>": 7242, "း</w>": 7243, "día</w>": 7244, "row": 7245, "segunda</w>": 7246, "Billboard</w>": 7247, "changes</w>": 7248, "waar</w>": 7249, "ゴ": 7250, "83</w>": 7251, "profession": 7252, "96</w>": 7253, "비": 7254, "score</w>": 7255, "purch": 7256, "сі</w>": 7257, "Ash": 7258, "Ла": 7259, "tien</w>": 7260, "poste</w>": 7261, "ческий</w>": 7262, "française</w>": 7263, "шим</w>": 7264, "sé</w>": 7265, "moins</w>": 7266, "eh</w>": 7267, "higher</w>": 7268, "69</w>": 7269, "Copa</w>": 7270, "ель</w>": 7271, "sex</w>": 7272, "来</w>": 7273, "manager</w>": 7274, "ць</w>": 7275, "年": 7276, "ison</w>": 7277, "гла": 7278, "All": 7279, "об</w>": 7280, "required</w>": 7281, "미": 7282, "charge</w>": 7283, "Gam": 7284, "بة</w>": 7285, "també</w>": 7286, "stud": 7287, "ры</w>": 7288, "дел": 7289, "Fra": 7290, "ca": 7291, "aer": 7292, "소": 7293, "pan</w>": 7294, "دی</w>": 7295, "reach</w>": 7296, "త</w>": 7297, "ning": 7298, "istas</w>": 7299, "tial</w>": 7300, "ких</w>": 7301, "anderem</w>": 7302, "88</w>": 7303, "。</w>": 7304, "off": 7305, "skie</w>": 7306, "つ": 7307, "91</w>": 7308, "premi": 7309, "telt</w>": 7310, "vis</w>": 7311, "illes</w>": 7312, "likely</w>": 7313, "aris</w>": 7314, "tussen</w>": 7315, "ków</w>": 7316, "self-": 7317, "ков": 7318, "ading</w>": 7319, "明": 7320, "Го": 7321, "ió</w>": 7322, "Dre": 7323, "در": 7324, "manera</w>": 7325, "época</w>": 7326, "osi": 7327, "ья</w>": 7328, "Gel": 7329, "σ": 7330, "Ha</w>": 7331, "protest": 7332, "który</w>": 7333, "عدد</w>": 7334, "sorry</w>": 7335, "IC</w>": 7336, "進</w>": 7337, "لو": 7338, "стар": 7339, "artist</w>": 7340, "Rob": 7341, "suit</w>": 7342, "בו": 7343, "skog</w>": 7344, "7,": 7345, "chin": 7346, "noted</w>": 7347, "kn": 7348, "tier</w>": 7349, "completely</w>": 7350, "ush": 7351, "Des</w>": 7352, "ని</w>": 7353, "wards</w>": 7354, "aller</w>": 7355, "ש</w>": 7356, "تر": 7357, "eben</w>": 7358, "కేంద</w>": 7359, "ден": 7360, "hall</w>": 7361, "relationship</w>": 7362, "expected</w>": 7363, "educ": 7364, "ций</w>": 7365, "plans</w>": 7366, "چ": 7367, "ата</w>": 7368, "generally</w>": 7369, "ട</w>": 7370, "Gri": 7371, "権</w>": 7372, "Illinois</w>": 7373, "Women</w>": 7374, "hos</w>": 7375, "celeb": 7376, "Science</w>": 7377, "nation</w>": 7378, "רה</w>": 7379, "ativa</w>": 7380, "ライ": 7381, "בר": 7382, "understand</w>": 7383, "阿": 7384, "вая</w>": 7385, "awa</w>": 7386, "bring</w>": 7387, "בא": 7388, "début</w>": 7389, "ње</w>": 7390, "according</w>": 7391, "health</w>": 7392, "située</w>": 7393, "Syn": 7394, "Pot": 7395, "num": 7396, "caused</w>": 7397, "Mittel": 7398, "1898</w>": 7399, "ories</w>": 7400, "ré</w>": 7401, "Joe</w>": 7402, "colle": 7403, "angan</w>": 7404, "ften</w>": 7405, "الس": 7406, "zeit": 7407, "ち": 7408, "month</w>": 7409, "až</w>": 7410, "V.</w>": 7411, "шей</w>": 7412, "Fel": 7413, "ム": 7414, "ké": 7415, "yc": 7416, "сом</w>": 7417, "Catholic</w>": 7418, "stam": 7419, "tures</w>": 7420, "chair</w>": 7421, "chance</w>": 7422, "wrong</w>": 7423, "dropped</w>": 7424, "6,": 7425, "donc</w>": 7426, "nal": 7427, "ನ</w>": 7428, "repli": 7429, "ecting</w>": 7430, "spielte</w>": 7431, "ини</w>": 7432, "動</w>": 7433, "peng": 7434, "ヒ": 7435, "内": 7436, "ct": 7437, "ário</w>": 7438, "gilapdon</w>": 7439, "naglibot</w>": 7440, "tiilan</w>": 7441, "tereyn</w>": 7442, "industry</w>": 7443, "kommen</w>": 7444, "dzi": 7445, "depend": 7446, "ō": 7447, "相": 7448, "fond": 7449, "ність</w>": 7450, "Tran": 7451, "network</w>": 7452, "cla": 7453, "estaba</w>": 7454, "71</w>": 7455, "ności</w>": 7456, "ティ": 7457, "Gran</w>": 7458, "同年</w>": 7459, "hall": 7460, "상": 7461, "Rem": 7462, "כי</w>": 7463, "idi</w>": 7464, "water": 7465, "legs</w>": 7466, "eries</w>": 7467, "76</w>": 7468, "Wy": 7469, "年代</w>": 7470, "ج</w>": 7471, "района</w>": 7472, "voir</w>": 7473, "press</w>": 7474, "practice</w>": 7475, "此</w>": 7476, "89</w>": 7477, "ите</w>": 7478, "zel": 7479, "하": 7480, "మ": 7481, "свя": 7482, "stran": 7483, "gruppo</w>": 7484, "º</w>": 7485, "Name</w>": 7486, "Universidad</w>": 7487, "た": 7488, "Hab": 7489, "Whit": 7490, "поль": 7491, "ature</w>": 7492, "700</w>": 7493, "dev": 7494, "names</w>": 7495, "Southern</w>": 7496, "82</w>": 7497, "Son": 7498, "tätbefolkat</w>": 7499, "ope</w>": 7500, "sek": 7501, "Ди": 7502, "oblig": 7503, "erie</w>": 7504, "Lev": 7505, "CO": 7506, "control": 7507, "ix</w>": 7508, "일": 7509, "sera</w>": 7510, "чер": 7511, "bbed</w>": 7512, "Max</w>": 7513, "has": 7514, "ган": 7515, "travel": 7516, "scene</w>": 7517, "0-": 7518, "Later</w>": 7519, "otras</w>": 7520, "Jam": 7521, "ایران</w>": 7522, "می": 7523, "skich</w>": 7524, "facil": 7525, "assist": 7526, "arab": 7527, "commercial</w>": 7528, "location</w>": 7529, "ده</w>": 7530, "ват": 7531, "anhianhi</w>": 7532, "Mid": 7533, "programa</w>": 7534, "oan</w>": 7535, "rij": 7536, "Landes": 7537, "interior</w>": 7538, "ring": 7539, "dob": 7540, "Mehiko</w>": 7541, "1890</w>": 7542, "stron": 7543, "clubs</w>": 7544, "голо": 7545, "D-": 7546, "eck</w>": 7547, "prefer": 7548, "원": 7549, "represented</w>": 7550, "利": 7551, "tempor": 7552, "77</w>": 7553, "begin</w>": 7554, "ター</w>": 7555, "利</w>": 7556, "可以</w>": 7557, "naselje</w>": 7558, "држави</w>": 7559, "రం</w>": 7560, "Out": 7561, "Series</w>": 7562, "conserv": 7563, "tuvo</w>": 7564, "soc": 7565, "ă": 7566, "Pseud": 7567, "initi": 7568, "ène</w>": 7569, "зем": 7570, "grade</w>": 7571, "ים</w>": 7572, "Sau": 7573, "federal</w>": 7574, "sau": 7575, "oth</w>": 7576, "wan": 7577, "97</w>": 7578, "dow": 7579, "property</w>": 7580, "secolo</w>": 7581, "gs</w>": 7582, "destin": 7583, "carried</w>": 7584, "као</w>": 7585, "ester": 7586, "द</w>": 7587, "Time</w>": 7588, "族</w>": 7589, "P-": 7590, "AC</w>": 7591, "atie</w>": 7592, "78</w>": 7593, "discus": 7594, "kow": 7595, "ত</w>": 7596, "sai</w>": 7597, "selbst</w>": 7598, "railway</w>": 7599, "10.</w>": 7600, "ήταν</w>": 7601, "fare</w>": 7602, "軍": 7603, "Research</w>": 7604, "icus</w>": 7605, "down": 7606, "个</w>": 7607, "スト</w>": 7608, "uz</w>": 7609, "ם</w>": 7610, "Board</w>": 7611, "مر": 7612, "sports</w>": 7613, "unde</w>": 7614, "тар": 7615, ",": 7616, "Á": 7617, "1897</w>": 7618, "ються</w>": 7619, "primeiro</w>": 7620, "Ré": 7621, "eb</w>": 7622, "Medi": 7623, "Dé": 7624, "Đ": 7625, "ності</w>": 7626, "Bad": 7627, "profes": 7628, "decision</w>": 7629, "traditional</w>": 7630, "exp": 7631, "sale</w>": 7632, "most": 7633, "fli": 7634, "1896</w>": 7635, "làm</w>": 7636, "сни": 7637, "label</w>": 7638, "zon": 7639, "departamento</w>": 7640, "piece</w>": 7641, "whether</w>": 7642, "ator": 7643, "pi</w>": 7644, "Personen</w>": 7645, "зав": 7646, "to-": 7647, "Dopo</w>": 7648, "основ": 7649, "Soviet</w>": 7650, "arrived</w>": 7651, "becoming</w>": 7652, "Harry</w>": 7653, "1899</w>": 7654, "Ton": 7655, "dov": 7656, "ور</w>": 7657, "dance</w>": 7658, "believed</w>": 7659, "Cop": 7660, "unit": 7661, "ња</w>": 7662, "香港</w>": 7663, "issues</w>": 7664, "chapter</w>": 7665, "части</w>": 7666, "eros</w>": 7667, "ета</w>": 7668, "Government</w>": 7669, "nal</w>": 7670, "nine</w>": 7671, "joh": 7672, "Town</w>": 7673, "band": 7674, "primary</w>": 7675, "chap": 7676, "dates</w>": 7677, "века</w>": 7678, "است": 7679, "shar": 7680, "الك": 7681, "Windows</w>": 7682, "な": 7683, "constru": 7684, "basis</w>": 7685, "organ": 7686, "mul": 7687, "lum": 7688, "мая</w>": 7689, "Many</w>": 7690, "開": 7691, "debut": 7692, "menos</w>": 7693, "owym</w>": 7694, "ワ": 7695, "inted</w>": 7696, "vita</w>": 7697, "stabil": 7698, "mp": 7699, "altres</w>": 7700, "み": 7701, "studies</w>": 7702, "itz</w>": 7703, "persones</w>": 7704, "vent</w>": 7705, "原": 7706, "rich</w>": 7707, "Jar": 7708, "claimed</w>": 7709, "revi": 7710, "Vit": 7711, "ব</w>": 7712, "kä": 7713, "הר": 7714, "בה</w>": 7715, "ugahon</w>": 7716, "appe": 7717, "прав": 7718, "Pom": 7719, "són</w>": 7720, "oga</w>": 7721, "Rod": 7722, "despite</w>": 7723, "influence</w>": 7724, "regional</w>": 7725, "bahn</w>": 7726, "دة</w>": 7727, "كانت</w>": 7728, "Following</w>": 7729, "personas</w>": 7730, "開始</w>": 7731, "む</w>": 7732, "develop": 7733, "ersch": 7734, "зы": 7735, "prest": 7736, "Pacific</w>": 7737, "aik": 7738, "Rus": 7739, "lun": 7740, "arna</w>": 7741, "autom": 7742, "rant</w>": 7743, "aut</w>": 7744, "nước</w>": 7745, "guy</w>": 7746, "ου</w>": 7747, "ход": 7748, "Lau": 7749, "Schul": 7750, "дет": 7751, "window</w>": 7752, "ux</w>": 7753, "dabei</w>": 7754, "шу": 7755, "gebiet</w>": 7756, "fy</w>": 7757, "income</w>": 7758, "О</w>": 7759, "Sun": 7760, "ints</w>": 7761, "talking</w>": 7762, "מת": 7763, "Euro": 7764, "symbol": 7765, "9.": 7766, "Те": 7767, "Ри": 7768, "општини</w>": 7769, "adap": 7770, "Fur": 7771, "uf": 7772, "marca</w>": 7773, "sal</w>": 7774, "Kunhod</w>": 7775, "aci</w>": 7776, "هذه</w>": 7777, "将</w>": 7778, "program": 7779, "tego</w>": 7780, "F.</w>": 7781, "Michigan</w>": 7782, "lí": 7783, "ای": 7784, "EP</w>": 7785, "stell": 7786, "Tim": 7787, "ater": 7788, "達</w>": 7789, "mon</w>": 7790, "fit</w>": 7791, "altre</w>": 7792, "gir": 7793, "movie</w>": 7794, "Simon</w>": 7795, "engine</w>": 7796, "lon": 7797, "Manuel</w>": 7798, "mesmo</w>": 7799, "That</w>": 7800, "inin</w>": 7801, "brit": 7802, "Sydney</w>": 7803, "eer</w>": 7804, "G.</w>": 7805, "glass</w>": 7806, "теле": 7807, "cold</w>": 7808, "teg": 7809, "determin": 7810, "éri": 7811, "國": 7812, "blan": 7813, "ohne</w>": 7814, "тив": 7815, "క": 7816, "어": 7817, "Ra": 7818, "cion": 7819, "hour</w>": 7820, "sendo</w>": 7821, "Li</w>": 7822, "ಕ</w>": 7823, "format</w>": 7824, "조": 7825, "دو": 7826, "deb": 7827, "ë": 7828, "d.</w>": 7829, "również</w>": 7830, "usi": 7831, "diverse</w>": 7832, "છે</w>": 7833, "1895</w>": 7834, "були</w>": 7835, "الف": 7836, "ans": 7837, "bol</w>": 7838, "座</w>": 7839, "u-": 7840, "iku</w>": 7841, "eci": 7842, "ام": 7843, "ード</w>": 7844, "quella</w>": 7845, "ши</w>": 7846, "Di</w>": 7847, "oug": 7848, "ర": 7849, "вом</w>": 7850, "서": 7851, "Reich": 7852, "bom": 7853, "ever": 7854, "ord</w>": 7855, "rov": 7856, "except</w>": 7857, "曾</w>": 7858, "OS</w>": 7859, "級</w>": 7860, "Bab": 7861, "bila</w>": 7862, "ваний</w>": 7863, "ender</w>": 7864, "inter</w>": 7865, "Ал": 7866, "Mau": 7867, "гре": 7868, "ーン</w>": 7869, "superficie</w>": 7870, "Ali": 7871, "Prince</w>": 7872, "speed</w>": 7873, "terletak</w>": 7874, "ait": 7875, "mill": 7876, "さ": 7877, "parti</w>": 7878, "Bou": 7879, "拉": 7880, "gged</w>": 7881, "indu": 7882, "мы": 7883, "Lep": 7884, "esz": 7885, "集</w>": 7886, "legal</w>": 7887, "版</w>": 7888, "yg": 7889, "ส</w>": 7890, "годах</w>": 7891, "jan</w>": 7892, "lives</w>": 7893, "neuen</w>": 7894, "də</w>": 7895, "aunque</w>": 7896, "откры": 7897, "Buenos</w>": 7898, "ober": 7899, "Он</w>": 7900, "remember</w>": 7901, "Насеље</w>": 7902, "gewann</w>": 7903, "pion": 7904, "starting</w>": 7905, "aim": 7906, "fron": 7907, "sand": 7908, "watched</w>": 7909, "thời</w>": 7910, "esper": 7911, "обра": 7912, "umi</w>": 7913, "вав</w>": 7914, "من": 7915, "zt</w>": 7916, "step</w>": 7917, "così</w>": 7918, "ees</w>": 7919, "Dev": 7920, "qu</w>": 7921, "agen</w>": 7922, "Pic": 7923, "ద</w>": 7924, "produce</w>": 7925, "ה</w>": 7926, "A.": 7927, "arts</w>": 7928, "BC</w>": 7929, "vend": 7930, "amihanang</w>": 7931, "tique</w>": 7932, "савезној</w>": 7933, "Hoch": 7934, "11.</w>": 7935, "access</w>": 7936, "fils</w>": 7937, "retur": 7938, "experi": 7939, "obefolkad</w>": 7940, "iones</w>": 7941, "구": 7942, "fs</w>": 7943, "ová</w>": 7944, "sar</w>": 7945, "kon</w>": 7946, "gets</w>": 7947, "Prema</w>": 7948, "Brit": 7949, "Georgia</w>": 7950, "сер": 7951, "kne": 7952, "trat": 7953, "politique</w>": 7954, "kk": 7955, "CD": 7956, "Ab</w>": 7957, "79</w>": 7958, "sonra</w>": 7959, "ались</w>": 7960, "tent</w>": 7961, "at-": 7962, "zia</w>": 7963, "תו</w>": 7964, "ως</w>": 7965, "обо": 7966, "Summer</w>": 7967, "Ges": 7968, "ست": 7969, "ví": 7970, "Rat": 7971, "Aires</w>": 7972, "rend": 7973, "bezeichnet</w>": 7974, "nd": 7975, "Cent": 7976, "chor": 7977, "cé": 7978, "Bah": 7979, "direct</w>": 7980, "може</w>": 7981, "平": 7982, "quad": 7983, "États-Unis</w>": 7984, "cell": 7985, "mos</w>": 7986, "cola</w>": 7987, "enda</w>": 7988, "全</w>": 7989, "Post": 7990, "lại</w>": 7991, "erk": 7992, "aco</w>": 7993, "ank</w>": 7994, "ga": 7995, "pir": 7996, "ön</w>": 7997, "Giovanni</w>": 7998, "grew</w>": 7999, "portra": 8000, "Second</w>": 8001, "host": 8002, "مح": 8003, "sta": 8004, "ég": 8005, "tere</w>": 8006, "mycket</w>": 8007, "ени</w>": 8008, "drama</w>": 8009, "isce</w>": 8010, "esti</w>": 8011, "해": 8012, "的": 8013, "particularly</w>": 8014, "istes</w>": 8015, "bac": 8016, "suddenly</w>": 8017, "あ": 8018, "الذي</w>": 8019, "senior</w>": 8020, "nel": 8021, "tournament</w>": 8022, "家": 8023, "isation</w>": 8024, "ног</w>": 8025, "87</w>": 8026, "стре": 8027, "Mundial</w>": 8028, "cau": 8029, "составе</w>": 8030, "Men</w>": 8031, "вла": 8032, "edge</w>": 8033, "Battle</w>": 8034, "ством</w>": 8035, "ols</w>": 8036, "comp": 8037, "Kil": 8038, "officer</w>": 8039, "head": 8040, "conditions</w>": 8041, "Je": 8042, "czy": 8043, "Show</w>": 8044, "erst</w>": 8045, "ول": 8046, "där</w>": 8047, "Ay": 8048, "न</w>": 8049, "武": 8050, "girls</w>": 8051, "України</w>": 8052, "psych": 8053, "octubre</w>": 8054, "ign": 8055, "System</w>": 8056, "Spiel": 8057, "Commission</w>": 8058, "kie</w>": 8059, "lob": 8060, "26": 8061, "bin</w>": 8062, "Line</w>": 8063, "empresa</w>": 8064, "Ва": 8065, "iet</w>": 8066, "può</w>": 8067, "tivo</w>": 8068, "serv": 8069, "deutscher</w>": 8070, "companies</w>": 8071, "Jersey</w>": 8072, "时</w>": 8073, "Paulo</w>": 8074, "limited</w>": 8075, "ných</w>": 8076, "complex</w>": 8077, "labor": 8078, "50": 8079, "Sta": 8080, "ели</w>": 8081, "ство": 8082, "жение</w>": 8083, "并</w>": 8084, "uns</w>": 8085, "dium</w>": 8086, "Während</w>": 8087, "兵</w>": 8088, "Kr": 8089, "дов</w>": 8090, "bled</w>": 8091, "Σ": 8092, "management</w>": 8093, "pulo</w>": 8094, "Pour</w>": 8095, "ح</w>": 8096, "ズ</w>": 8097, "โดย</w>": 8098, "expression</w>": 8099, "operation</w>": 8100, "ул": 8101, "Russia</w>": 8102, "出身</w>": 8103, "aug": 8104, "tical</w>": 8105, "район</w>": 8106, "ules</w>": 8107, "見": 8108, "фа": 8109, "illi": 8110, "nost</w>": 8111, "aster</w>": 8112, "terms</w>": 8113, "operations</w>": 8114, "나": 8115, "assemb": 8116, "bing</w>": 8117, "Stor": 8118, "agreed</w>": 8119, "Foi</w>": 8120, "sad": 8121, "Pop": 8122, "直": 8123, "ped": 8124, "Ther": 8125, "experience</w>": 8126, "ensemble</w>": 8127, "create</w>": 8128, "教</w>": 8129, "ened</w>": 8130, "imo</w>": 8131, "ases</w>": 8132, "F-": 8133, "illy</w>": 8134, "lett</w>": 8135, "-e</w>": 8136, "リ</w>": 8137, "answer</w>": 8138, "フ</w>": 8139, "avan": 8140, "yr</w>": 8141, "مة</w>": 8142, "会社</w>": 8143, "mid-": 8144, "roi</w>": 8145, "קה</w>": 8146, "1st</w>": 8147, "bles</w>": 8148, "bon</w>": 8149, "里</w>": 8150, "ece</w>": 8151, "kasagbotan</w>": 8152, "filled</w>": 8153, "94</w>": 8154, "Monte</w>": 8155, "نو": 8156, "launched</w>": 8157, "disco</w>": 8158, "取</w>": 8159, "tiv": 8160, "kim</w>": 8161, "cũng</w>": 8162, "lage</w>": 8163, "الص": 8164, "և</w>": 8165, "ská</w>": 8166, "ult": 8167, "ケ": 8168, "Chris</w>": 8169, "Nu": 8170, "lado</w>": 8171, "fish</w>": 8172, "neue</w>": 8173, "म</w>": 8174, "simply</w>": 8175, "27": 8176, "Mike</w>": 8177, "цев</w>": 8178, "称</w>": 8179, "tain": 8180, "ligne</w>": 8181, "versi": 8182, "numerous</w>": 8183, "学": 8184, "waiting</w>": 8185, "щи": 8186, "Film": 8187, "чем</w>": 8188, "rement</w>": 8189, "Maz": 8190, "站</w>": 8191, "nig": 8192, "ική</w>": 8193, "motor</w>": 8194, "који</w>": 8195, "ois": 8196, "Pres": 8197, "ech</w>": 8198, "combin": 8199, "author</w>": 8200, "Ny": 8201, "טי": 8202, "Ду": 8203, "èrent</w>": 8204, "دی": 8205, "God": 8206, "Stre": 8207, "sign</w>": 8208, "個": 8209, "nuevo</w>": 8210, "Win": 8211, "histori": 8212, "86</w>": 8213, "besch": 8214, "ə</w>": 8215, "mus</w>": 8216, "dier</w>": 8217, "мира</w>": 8218, "repe": 8219, "jel": 8220, "вы</w>": 8221, "alto</w>": 8222, "Mot": 8223, "territorio</w>": 8224, "rid": 8225, "Italy</w>": 8226, "mez": 8227, "және</w>": 8228, "tema</w>": 8229, "Um</w>": 8230, "eth</w>": 8231, "porte</w>": 8232, "Area</w>": 8233, "主要</w>": 8234, "Sur</w>": 8235, "вих</w>": 8236, "klas": 8237, "looks</w>": 8238, "nan</w>": 8239, "mom</w>": 8240, "eras</w>": 8241, "México</w>": 8242, "hurt</w>": 8243, "vý": 8244, "República</w>": 8245, "chief</w>": 8246, "жа</w>": 8247, "lange</w>": 8248, "пар": 8249, "dog</w>": 8250, "Een</w>": 8251, "пла": 8252, "CA": 8253, "器</w>": 8254, "kad": 8255, "sis": 8256, "gehörte</w>": 8257, "staat</w>": 8258, "který</w>": 8259, "высо": 8260, "eful</w>": 8261, "στη</w>": 8262, "Championships</w>": 8263, "happy</w>": 8264, "lek": 8265, "ман</w>": 8266, "ели": 8267, "мал": 8268, "primeira</w>": 8269, "SE": 8270, "會</w>": 8271, "municipality</w>": 8272, "anna</w>": 8273, "tives</w>": 8274, "perhaps</w>": 8275, "bil</w>": 8276, "û": 8277, "izan</w>": 8278, "kou</w>": 8279, "través</w>": 8280, "側</w>": 8281, "星</w>": 8282, "Seg": 8283, "square</w>": 8284, "При</w>": 8285, "histoire</w>": 8286, "hou": 8287, "physi": 8288, "Kun": 8289, "ER": 8290, "Corporation</w>": 8291, "種</w>": 8292, "하여</w>": 8293, "Federal</w>": 8294, "título</w>": 8295, "computer</w>": 8296, "קי": 8297, "Wilson</w>": 8298, "им": 8299, "contains</w>": 8300, "text</w>": 8301, "union</w>": 8302, "sets</w>": 8303, "arm": 8304, "пле": 8305, "ري": 8306, "ear</w>": 8307, "effect</w>": 8308, "XVIII</w>": 8309, "double</w>": 8310, "mont</w>": 8311, "sti</w>": 8312, "bá": 8313, "שנ": 8314, "вий</w>": 8315, "jos</w>": 8316, "fru": 8317, "部分</w>": 8318, "عة</w>": 8319, "Colorado</w>": 8320, "trade</w>": 8321, "hl": 8322, "tale</w>": 8323, "evidence</w>": 8324, "Jahrhunderts</w>": 8325, "posit": 8326, "rée</w>": 8327, "itat</w>": 8328, "馬": 8329, "Gef": 8330, "스</w>": 8331, "También</w>": 8332, "له</w>": 8333, "verso</w>": 8334, "로": 8335, "tras": 8336, "dentro</w>": 8337, "映画</w>": 8338, "subject</w>": 8339, "ć": 8340, "克</w>": 8341, "Puerto</w>": 8342, "ذ": 8343, "vin</w>": 8344, "report</w>": 8345, "Massachusetts</w>": 8346, "nouvelle</w>": 8347, "య": 8348, "河</w>": 8349, "partido</w>": 8350, "But": 8351, "icht</w>": 8352, "Como</w>": 8353, "стала</w>": 8354, "ям</w>": 8355, "weiter</w>": 8356, "Ka": 8357, "Civil</w>": 8358, "40": 8359, "Fu": 8360, "impres": 8361, "increased</w>": 8362, "idas</w>": 8363, "zat": 8364, "ät</w>": 8365, "ція</w>": 8366, "industri": 8367, "highest</w>": 8368, "林</w>": 8369, "matches</w>": 8370, "një</w>": 8371, "diplom": 8372, "succes": 8373, "特</w>": 8374, "én": 8375, "appear</w>": 8376, "opport": 8377, "сред": 8378, "satu</w>": 8379, "Rot": 8380, "failed</w>": 8381, "için</w>": 8382, "電": 8383, "دا": 8384, "Ed": 8385, "delstaten</w>": 8386, "dois</w>": 8387, "cry": 8388, "Af": 8389, "UN": 8390, "redu": 8391, "nacional</w>": 8392, "1870</w>": 8393, "Hum": 8394, "sten": 8395, "Live</w>": 8396, "aling</w>": 8397, "enter</w>": 8398, "Law</w>": 8399, "tos": 8400, "tutti</w>": 8401, "Anti": 8402, "Ž": 8403, "起</w>": 8404, "と": 8405, "sti": 8406, "lights</w>": 8407, "Pakistan</w>": 8408, "eln</w>": 8409, "tt</w>": 8410, "тому</w>": 8411, "sekä</w>": 8412, "Dit</w>": 8413, "Sin</w>": 8414, "agua</w>": 8415, "подацима</w>": 8416, "XVI</w>": 8417, "alcuni</w>": 8418, "tree</w>": 8419, "S.": 8420, "iri</w>": 8421, "ک</w>": 8422, "offen": 8423, "над": 8424, "sto</w>": 8425, "1889</w>": 8426, "pak": 8427, "kets</w>": 8428, "Esc": 8429, "Bak": 8430, "мо</w>": 8431, "zak": 8432, "הק": 8433, "houses</w>": 8434, "cros": 8435, "nahme</w>": 8436, "Spe": 8437, "Colombia</w>": 8438, "時間</w>": 8439, "isn</w>": 8440, "nob": 8441, "isches</w>": 8442, "cargo</w>": 8443, "response</w>": 8444, "口</w>": 8445, "hier": 8446, "watch</w>": 8447, "мом</w>": 8448, "führte</w>": 8449, "quar": 8450, "tersebut</w>": 8451, "ще": 8452, "mam": 8453, "că</w>": 8454, "Pos": 8455, "於": 8456, "0s</w>": 8457, "ety</w>": 8458, "omkring</w>": 8459, "вся</w>": 8460, "Year</w>": 8461, "qué</w>": 8462, "سے</w>": 8463, "理</w>": 8464, "fus": 8465, "зат": 8466, "foot</w>": 8467, "remains</w>": 8468, "צי": 8469, "hip</w>": 8470, "clim": 8471, "xe</w>": 8472, "alan</w>": 8473, "pus": 8474, "fand</w>": 8475, "一般</w>": 8476, "ellos</w>": 8477, "kok": 8478, "economic</w>": 8479, "quelques</w>": 8480, "Irish</w>": 8481, "ient</w>": 8482, "pour": 8483, "schen</w>": 8484, "God</w>": 8485, "ther</w>": 8486, "된</w>": 8487, "Lo</w>": 8488, "bugnaw</w>": 8489, "koje</w>": 8490, "pří": 8491, "共</w>": 8492, "contr": 8493, "uro</w>": 8494, "cell</w>": 8495, "arbeitete</w>": 8496, "nova</w>": 8497, "Res": 8498, "Bob</w>": 8499, "ño</w>": 8500, "вар": 8501, "Sud": 8502, "ában</w>": 8503, "lib": 8504, "exten": 8505, "само": 8506, "stations</w>": 8507, "eur": 8508, "erstmals</w>": 8509, "vast": 8510, "solution</w>": 8511, "I-": 8512, "改": 8513, "bou": 8514, "റ</w>": 8515, "komt</w>": 8516, "מש": 8517, "dr</w>": 8518, "État</w>": 8519, "aquest</w>": 8520, "shown</w>": 8521, "Nas": 8522, "子": 8523, "Has": 8524, "jal": 8525, "год": 8526, "Q</w>": 8527, "nhà</w>": 8528, "qui": 8529, "municipal</w>": 8530, "política</w>": 8531, "angen</w>": 8532, "etto</w>": 8533, "ència</w>": 8534, "estaven</w>": 8535, "бли": 8536, "jednak</w>": 8537, "schon</w>": 8538, "had": 8539, "которых</w>": 8540, "tul": 8541, "Fi": 8542, "corpor": 8543, "Premier</w>": 8544, "球</w>": 8545, "erten</w>": 8546, "larger</w>": 8547, "вые</w>": 8548, "singer</w>": 8549, "Raj": 8550, "bec": 8551, "Ben</w>": 8552, "weight</w>": 8553, "свою</w>": 8554, "promo": 8555, "vote</w>": 8556, "động</w>": 8557, "Ни": 8558, "characters</w>": 8559, "iser</w>": 8560, "hope</w>": 8561, "съ": 8562, "wer</w>": 8563, "Sat": 8564, "лан": 8565, "nj": 8566, "ща": 8567, "spre": 8568, "الإ": 8569, "когда</w>": 8570, "camp": 8571, "particip": 8572, "Otto</w>": 8573, "edly</w>": 8574, "selon</w>": 8575, "drive</w>": 8576, "wait</w>": 8577, "1885</w>": 8578, "ancora</w>": 8579, "impro": 8580, "ському</w>": 8581, "ennes</w>": 8582, "ojn</w>": 8583, "ark": 8584, "explor": 8585, "aven</w>": 8586, "mereka</w>": 8587, "ander": 8588, "уже</w>": 8589, "def": 8590, "Elizabeth</w>": 8591, "мар": 8592, "டு</w>": 8593, "pá": 8594, "xa</w>": 8595, "quindi</w>": 8596, "río</w>": 8597, "石": 8598, "Neu": 8599, "Taylor</w>": 8600, "лом</w>": 8601, "ниче": 8602, "gut</w>": 8603, "quello</w>": 8604, "anu</w>": 8605, "Amerika</w>": 8606, "ската</w>": 8607, "hacia</w>": 8608, "לא": 8609, "quali</w>": 8610, "1880</w>": 8611, "které</w>": 8612, "発": 8613, "aal": 8614, "там</w>": 8615, "miêu</w>": 8616, "ху": 8617, "victory</w>": 8618, "kir": 8619, "当時</w>": 8620, "view": 8621, "Gem": 8622, "deriv": 8623, "ções</w>": 8624, "image</w>": 8625, "Rab": 8626, "dop": 8627, "Mississippi</w>": 8628, "associated</w>": 8629, "chem": 8630, "convin": 8631, "unique</w>": 8632, "cker</w>": 8633, "ovo</w>": 8634, "arian</w>": 8635, "Lag": 8636, "Steve</w>": 8637, "hun": 8638, "AN": 8639, "kommun</w>": 8640, "1893</w>": 8641, "uw": 8642, "aid</w>": 8643, "some": 8644, "zin": 8645, "هذا</w>": 8646, "directly</w>": 8647, "ся": 8648, "இந</w>": 8649, "christ": 8650, "dens</w>": 8651, "Å": 8652, "бит": 8653, "kos": 8654, "anth": 8655, "Is</w>": 8656, "klimatzonen</w>": 8657, "우": 8658, "نام</w>": 8659, "fick</w>": 8660, "£</w>": 8661, "sson</w>": 8662, "chez</w>": 8663, "tenía</w>": 8664, "organisation</w>": 8665, "majority</w>": 8666, "கப</w>": 8667, "Hot</w>": 8668, "collabor": 8669, "époque</w>": 8670, "бан": 8671, "第一</w>": 8672, "må": 8673, "code</w>": 8674, "Korea</w>": 8675, "sang</w>": 8676, "Лю": 8677, "pli": 8678, "Wel": 8679, "Gil": 8680, "eastern</w>": 8681, "famiglia</w>": 8682, "着</w>": 8683, "石</w>": 8684, "ల": 8685, "rel</w>": 8686, "tí": 8687, "lige</w>": 8688, "سا": 8689, "10-": 8690, "ı": 8691, "situé</w>": 8692, "exer": 8693, "edo</w>": 8694, "寺</w>": 8695, "Francis</w>": 8696, "public": 8697, "No.</w>": 8698, "ního</w>": 8699, "termine</w>": 8700, "yan</w>": 8701, "tradition": 8702, "Wasser": 8703, "vil</w>": 8704, "beautiful</w>": 8705, "problems</w>": 8706, "AM": 8707, "hiện</w>": 8708, "cham": 8709, "uan</w>": 8710, "utes</w>": 8711, "1894</w>": 8712, "py": 8713, "ও</w>": 8714, "celle</w>": 8715, "trouve</w>": 8716, "Theatre</w>": 8717, "Schw": 8718, "fiz": 8719, "init</w>": 8720, "ες</w>": 8721, "stars</w>": 8722, "1892</w>": 8723, "straight</w>": 8724, "Sud</w>": 8725, "美": 8726, "reste</w>": 8727, "馬</w>": 8728, "Public</w>": 8729, "skih</w>": 8730, "recon": 8731, "ών</w>": 8732, "aje</w>": 8733, "nahmen</w>": 8734, "itas</w>": 8735, "Stein": 8736, "コン": 8737, "cost</w>": 8738, "又</w>": 8739, "appears</w>": 8740, "gehört</w>": 8741, "zwe": 8742, "él": 8743, "Lab": 8744, "可</w>": 8745, "IN": 8746, "ligh": 8747, "yra</w>": 8748, "separate</w>": 8749, "født</w>": 8750, "回": 8751, "sá": 8752, "discovered</w>": 8753, "Da": 8754, "tanom</w>": 8755, "Port</w>": 8756, "Tol": 8757, "обще": 8758, "clu": 8759, "attempt</w>": 8760, "Dav": 8761, "yard</w>": 8762, "ierten</w>": 8763, "Greek</w>": 8764, "ಮತ</w>": 8765, "Field</w>": 8766, "Rel": 8767, "university</w>": 8768, "Villa</w>": 8769, "exemple</w>": 8770, "слу": 8771, "inge</w>": 8772, "Süd": 8773, "гар": 8774, "parties</w>": 8775, "Ali</w>": 8776, "mientras</w>": 8777, "жу": 8778, "But</w>": 8779, "what": 8780, "賞</w>": 8781, "mang": 8782, "einige</w>": 8783, "extra": 8784, "Sum": 8785, "ツ": 8786, "四</w>": 8787, "presso</w>": 8788, "adunay</w>": 8789, "ホ": 8790, "nhất</w>": 8791, "corner</w>": 8792, "Liste</w>": 8793, "Song</w>": 8794, "annual</w>": 8795, "thor": 8796, "pac": 8797, "라": 8798, "sondern</w>": 8799, "gat": 8800, "1891</w>": 8801, "additional</w>": 8802, "ческие</w>": 8803, "augh": 8804, "bukid</w>": 8805, "owed</w>": 8806, "transport</w>": 8807, "ων</w>": 8808, "Franz</w>": 8809, "skulle</w>": 8810, "pretty</w>": 8811, "schule</w>": 8812, "Railway</w>": 8813, "gues</w>": 8814, "ija</w>": 8815, "fram": 8816, "retired</w>": 8817, "天</w>": 8818, "Stu": 8819, "sequ": 8820, "テレビ</w>": 8821, "beat</w>": 8822, "років</w>": 8823, "abad</w>": 8824, "sources</w>": 8825, "wed": 8826, "obras</w>": 8827, "Vir": 8828, "Hay": 8829, "medical</w>": 8830, "американ": 8831, "chron": 8832, "Education</w>": 8833, "materi": 8834, "please</w>": 8835, "mat</w>": 8836, "Cra": 8837, "aient</w>": 8838, "ener": 8839, "10.": 8840, "ذلك</w>": 8841, "medal</w>": 8842, "ペ": 8843, "ে</w>": 8844, "28": 8845, "drew</w>": 8846, "fünf</w>": 8847, "serving</w>": 8848, "Deutschen</w>": 8849, "nic": 8850, "对</w>": 8851, "ña</w>": 8852, "سی": 8853, "tracks</w>": 8854, "distribu": 8855, "ind</w>": 8856, "ез": 8857, "лы": 8858, "fik": 8859, "stret": 8860, "coc": 8861, "agu": 8862, "π": 8863, "programs</w>": 8864, "enz</w>": 8865, "הפ": 8866, "く": 8867, "нен": 8868, "sche</w>": 8869, "Kunst": 8870, "activities</w>": 8871, "usk": 8872, "vet</w>": 8873, "deleg": 8874, "ско</w>": 8875, "stellung</w>": 8876, "како</w>": 8877, "introdu": 8878, "varios</w>": 8879, "seconda</w>": 8880, "nord": 8881, "ん": 8882, "z-": 8883, "Бе": 8884, "нах</w>": 8885, "Sou": 8886, "Бер": 8887, "weise</w>": 8888, "fé": 8889, "Hav": 8890, "女</w>": 8891, "خود</w>": 8892, "дво": 8893, "oun": 8894, "self</w>": 8895, "Eastern</w>": 8896, "Ball": 8897, "uren</w>": 8898, "шен": 8899, "8,": 8900, "30.</w>": 8901, "película</w>": 8902, "lut": 8903, "Titel</w>": 8904, "Costa</w>": 8905, "selected</w>": 8906, "光</w>": 8907, "command</w>": 8908, "mutta</w>": 8909, "এবং</w>": 8910, "Ор": 8911, "operated</w>": 8912, "especie</w>": 8913, "מן</w>": 8914, "скому</w>": 8915, "う": 8916, "Zu</w>": 8917, "세": 8918, "Lind": 8919, "kot</w>": 8920, "הג": 8921, "дж": 8922, "dres": 8923, "21.</w>": 8924, "глав": 8925, "K.</w>": 8926, "pode</w>": 8927, "estos</w>": 8928, "重</w>": 8929, "ting": 8930, "sitting</w>": 8931, "До</w>": 8932, "bre</w>": 8933, "ক</w>": 8934, "Musi": 8935, "цен": 8936, "Beach</w>": 8937, "forte</w>": 8938, "má</w>": 8939, "ės</w>": 8940, "194": 8941, "Ten": 8942, "että</w>": 8943, "دو</w>": 8944, "security</w>": 8945, "音</w>": 8946, "Ç": 8947, "чной</w>": 8948, "prison": 8949, "Bos": 8950, "села</w>": 8951, "recent</w>": 8952, "roc": 8953, "nol": 8954, "pos</w>": 8955, "senza</w>": 8956, "przy</w>": 8957, "Media</w>": 8958, "חו": 8959, "také</w>": 8960, "CH": 8961, "區</w>": 8962, "много</w>": 8963, "主</w>": 8964, "вым</w>": 8965, "sites</w>": 8966, "atura</w>": 8967, "мест": 8968, "boys</w>": 8969, "首</w>": 8970, "కి.మీ.</w>": 8971, "cuatro</w>": 8972, "abil": 8973, "္</w>": 8974, "confer": 8975, "oka</w>": 8976, "nearby</w>": 8977, "ós</w>": 8978, "artists</w>": 8979, "FM</w>": 8980, "τις</w>": 8981, "чтобы</w>": 8982, "Mand": 8983, "subtropikal</w>": 8984, "isol": 8985, "עד</w>": 8986, "one-": 8987, "SC</w>": 8988, "nab": 8989, "religious</w>": 8990, "dernier</w>": 8991, "Bran": 8992, "umogon</w>": 8993, "iter</w>": 8994, "sydöstra</w>": 8995, "Pla": 8996, "M-": 8997, "dice</w>": 8998, "Mik": 8999, "bers</w>": 9000, "arc": 9001, "nan": 9002, "closer</w>": 9003, "comuna</w>": 9004, "instal": 9005, "Omgivningarna</w>": 9006, "Nav": 9007, "حيث</w>": 9008, "dh": 9009, "tec": 9010, "Кон": 9011, "kem": 9012, "Sea</w>": 9013, "ional</w>": 9014, "Аль": 9015, "amihang-kasadpan</w>": 9016, "実": 9017, "кий</w>": 9018, "isto</w>": 9019, "Mari": 9020, "juin</w>": 9021, "番組</w>": 9022, "ע</w>": 9023, "eter</w>": 9024, "районе</w>": 9025, "chen": 9026, "Jer": 9027, "contribut": 9028, "rt</w>": 9029, "eman</w>": 9030, "августа</w>": 9031, "β": 9032, "dered</w>": 9033, "ths</w>": 9034, "find": 9035, "lets</w>": 9036, "permet</w>": 9037, "atori</w>": 9038, "bia</w>": 9039, "yer": 9040, "ற</w>": 9041, "לים</w>": 9042, "Wo": 9043, "县</w>": 9044, "exactly</w>": 9045, "연": 9046, "principalmente</w>": 9047, "sexual</w>": 9048, "格": 9049, "administration</w>": 9050, "1888</w>": 9051, "ensuite</w>": 9052, "zuen</w>": 9053, "contact</w>": 9054, "than": 9055, "кат": 9056, "François</w>": 9057, "marine</w>": 9058, "тен": 9059, "supported</w>": 9060, "cated</w>": 9061, "Ві": 9062, "тур": 9063, "pose</w>": 9064, "הם</w>": 9065, "ści": 9066, "Ford</w>": 9067, "الش": 9068, "тах</w>": 9069, "قرار</w>": 9070, "Mais</w>": 9071, "rund</w>": 9072, "quanto</w>": 9073, "wol": 9074, "gt</w>": 9075, "伊": 9076, "anya</w>": 9077, "neb": 9078, "Henri</w>": 9079, "silver</w>": 9080, "dt</w>": 9081, "文化</w>": 9082, "vul": 9083, "Ry": 9084, "broke</w>": 9085, "В.</w>": 9086, "Lewis</w>": 9087, "тами</w>": 9088, "attra": 9089, "ady</w>": 9090, "gikan</w>": 9091, "యం</w>": 9092, "RA": 9093, "See</w>": 9094, "德</w>": 9095, "Jud": 9096, "वर</w>": 9097, "ached</w>": 9098, "ash</w>": 9099, "дан</w>": 9100, "Adam</w>": 9101, "född</w>": 9102, "سنة</w>": 9103, "nebo</w>": 9104, "pav": 9105, "isti</w>": 9106, "meaning</w>": 9107, "amiento</w>": 9108, "民</w>": 9109, "Davis</w>": 9110, "prend</w>": 9111, "aler</w>": 9112, "estat</w>": 9113, "veget": 9114, "ち</w>": 9115, "年),</w>": 9116, "之": 9117, "People</w>": 9118, "Foundation</w>": 9119, "тор</w>": 9120, "Sak": 9121, "kommunen</w>": 9122, "note</w>": 9123, "Berg</w>": 9124, "기</w>": 9125, "lers</w>": 9126, "Му": 9127, "SA": 9128, "כל</w>": 9129, "bau": 9130, "Kong</w>": 9131, "ати": 9132, "mei</w>": 9133, "fäl": 9134, "tö": 9135, "Wit": 9136, "desc": 9137, "والم": 9138, "Lig": 9139, "ilor</w>": 9140, "első</w>": 9141, "Londres</w>": 9142, "Tat": 9143, "Olympics</w>": 9144, "offer</w>": 9145, "爾": 9146, "enced</w>": 9147, "ór": 9148, "fif": 9149, "業</w>": 9150, "alia</w>": 9151, "Hö": 9152, "nor</w>": 9153, "iza</w>": 9154, "gers</w>": 9155, "assum": 9156, "zab": 9157, "äm": 9158, "honor</w>": 9159, "étant</w>": 9160, "marriage</w>": 9161, "gun": 9162, "VII</w>": 9163, "ills</w>": 9164, "cuenta</w>": 9165, "inde": 9166, "PS</w>": 9167, "Major</w>": 9168, "dalle</w>": 9169, "étaient</w>": 9170, "各</w>": 9171, "通": 9172, "hon</w>": 9173, "aran</w>": 9174, "hvor</w>": 9175, "acions</w>": 9176, "enes</w>": 9177, "isch-": 9178, "Пи": 9179, "tid</w>": 9180, "bah": 9181, "histor": 9182, "lung</w>": 9183, "Bern": 9184, "ex-": 9185, "baby</w>": 9186, "aming</w>": 9187, "пат": 9188, "pueden</w>": 9189, "habagatang-kasadpan</w>": 9190, "Ari": 9191, "ful": 9192, "remaining</w>": 9193, "rey</w>": 9194, "μ": 9195, "iled</w>": 9196, "木</w>": 9197, "seines</w>": 9198, "несколько</w>": 9199, "buvo</w>": 9200, "stop": 9201, "lor": 9202, "cré": 9203, "Pur": 9204, "result": 9205, "platser</w>": 9206, "uer": 9207, "iques</w>": 9208, "hotel</w>": 9209, "室</w>": 9210, "Diego</w>": 9211, "Liber": 9212, "hot": 9213, "aw</w>": 9214, "hau": 9215, "пан": 9216, "duc": 9217, "Tony</w>": 9218, "ushed</w>": 9219, "ejo</w>": 9220, "Johannes</w>": 9221, "lip": 9222, "ье</w>": 9223, "؛</w>": 9224, "الب": 9225, "Internet</w>": 9226, "ý": 9227, "Cruz</w>": 9228, "Sul": 9229, "Meg": 9230, "Maj": 9231, "kle": 9232, "feature</w>": 9233, "inus</w>": 9234, "Bis": 9235, "estab": 9236, "син": 9237, "département</w>": 9238, "\"": 9239, "ologia</w>": 9240, "Hospital</w>": 9241, "goals</w>": 9242, "Alfred</w>": 9243, "dom</w>": 9244, "kov</w>": 9245, "rica</w>": 9246, "территории</w>": 9247, "зи</w>": 9248, "府</w>": 9249, "ios</w>": 9250, "arono</w>": 9251, "została</w>": 9252, "Of</w>": 9253, "results</w>": 9254, "00": 9255, "Sein</w>": 9256, "habagatang-sidlakan</w>": 9257, "oms</w>": 9258, "Od": 9259, "pron": 9260, "ת</w>": 9261, "neu</w>": 9262, "Deze</w>": 9263, "fet": 9264, "près</w>": 9265, "éch": 9266, "jas</w>": 9267, "nus</w>": 9268, "ives</w>": 9269, "theory</w>": 9270, "transport": 9271, "αν": 9272, "chef</w>": 9273, "Wi": 9274, "headed</w>": 9275, "Bun": 9276, "ця</w>": 9277, "Tit": 9278, "合": 9279, "定": 9280, "ativo</w>": 9281, "She": 9282, "Lis": 9283, "ar-": 9284, "град</w>": 9285, "fos": 9286, "Ł": 9287, "Ве": 9288, "specific</w>": 9289, "lj": 9290, "вый</w>": 9291, "referred</w>": 9292, "nhiều</w>": 9293, "sides</w>": 9294, "mix": 9295, "shire</w>": 9296, "ブ</w>": 9297, "вает</w>": 9298, "је": 9299, "poor</w>": 9300, "Kle": 9301, "Chief</w>": 9302, "ост": 9303, "ын": 9304, "auer</w>": 9305, "FA</w>": 9306, "団</w>": 9307, "ני</w>": 9308, "ży": 9309, "Toronto</w>": 9310, "év": 9311, "fase</w>": 9312, "News</w>": 9313, "чка</w>": 9314, "ว่า</w>": 9315, "estate</w>": 9316, "sex": 9317, "ещё</w>": 9318, "Loc": 9319, "character": 9320, "riktning</w>": 9321, "ões</w>": 9322, "Haus": 9323, "建</w>": 9324, "Moscow</w>": 9325, "cinco</w>": 9326, "தில</w>": 9327, "1886</w>": 9328, "ordered</w>": 9329, "cji</w>": 9330, "leh": 9331, "anga</w>": 9332, "29": 9333, "skri": 9334, "père</w>": 9335, "gaze</w>": 9336, "എന</w>": 9337, "erer</w>": 9338, "Bud": 9339, "sol</w>": 9340, "alist": 9341, "ата": 9342, "pet</w>": 9343, "autor</w>": 9344, "Congress</w>": 9345, "Rev": 9346, "nie": 9347, "кор": 9348, "参加</w>": 9349, "touch</w>": 9350, "emo": 9351, "Conference</w>": 9352, "bal</w>": 9353, "kamadan</w>": 9354, "ების</w>": 9355, "erre": 9356, "ją</w>": 9357, "util": 9358, "марта</w>": 9359, "elements</w>": 9360, "rul": 9361, "bow": 9362, "ಲ</w>": 9363, "amed</w>": 9364, "ус": 9365, "(昭和</w>": 9366, "心</w>": 9367, "his": 9368, "vik": 9369, "award</w>": 9370, "רים</w>": 9371, "Their</w>": 9372, "布": 9373, "initially</w>": 9374, "realized</w>": 9375, "tej</w>": 9376, "годы</w>": 9377, "nen": 9378, "atas</w>": 9379, "Jun": 9380, "itude</w>": 9381, "nombreux</w>": 9382, "administrative</w>": 9383, "AS</w>": 9384, "чна</w>": 9385, "жи</w>": 9386, "page</w>": 9387, "Roc": 9388, "hausen</w>": 9389, "Kel": 9390, "mü": 9391, "流</w>": 9392, "Tour": 9393, "vart</w>": 9394, "atta": 9395, "bé": 9396, "Georg</w>": 9397, "color": 9398, "事": 9399, "haf": 9400, "จะ</w>": 9401, "fot": 9402, "לו</w>": 9403, "ност</w>": 9404, "focus</w>": 9405, "FI": 9406, "financi": 9407, "bid": 9408, "earned</w>": 9409, "ъ": 9410, "positions</w>": 9411, "sun</w>": 9412, "чі</w>": 9413, "oir</w>": 9414, "ικό</w>": 9415, "rare</w>": 9416, "Jacques</w>": 9417, "hes": 9418, "Miguel</w>": 9419, "סו": 9420, "slightly</w>": 9421, "sagolsagol</w>": 9422, "ース</w>": 9423, "рах</w>": 9424, "chia</w>": 9425, "Lac": 9426, "ilə</w>": 9427, "rak": 9428, "department</w>": 9429, "ι": 9430, "kru": 9431, "rates</w>": 9432, "xã</w>": 9433, "notable</w>": 9434, "eca</w>": 9435, "ರ</w>": 9436, "opsis</w>": 9437, "Desa</w>": 9438, "atter": 9439, "carrière</w>": 9440, "ז</w>": 9441, "Pir": 9442, "кры": 9443, "wel</w>": 9444, "Latin</w>": 9445, "際</w>": 9446, "neben</w>": 9447, "Meter</w>": 9448, "erde</w>": 9449, "nuovo</w>": 9450, "第": 9451, "政治</w>": 9452, "cel</w>": 9453, "medio</w>": 9454, "kiem</w>": 9455, "infor": 9456, "ючи</w>": 9457, "call": 9458, "soldiers</w>": 9459, "里": 9460, "Ga": 9461, "showed</w>": 9462, "rad</w>": 9463, "negli</w>": 9464, "ager</w>": 9465, "kli": 9466, "volume</w>": 9467, "iers</w>": 9468, "wy</w>": 9469, "长</w>": 9470, "stom": 9471, "25.</w>": 9472, "лич": 9473, "jour": 9474, "rata</w>": 9475, "един": 9476, "Sant</w>": 9477, "T.</w>": 9478, "vec": 9479, "shed</w>": 9480, "responsible</w>": 9481, "incorpor": 9482, "元": 9483, "heat</w>": 9484, "champion</w>": 9485, "membres</w>": 9486, "shirt</w>": 9487, "Entertainment</w>": 9488, "formes</w>": 9489, "Nat": 9490, "ray</w>": 9491, "Bag": 9492, "1878</w>": 9493, "terme</w>": 9494, "Fox</w>": 9495, "spread</w>": 9496, "association</w>": 9497, "entos</w>": 9498, "II.</w>": 9499, "variety</w>": 9500, "weer</w>": 9501, "которой</w>": 9502, "innen</w>": 9503, "després</w>": 9504, "była</w>": 9505, "scri": 9506, "Gruppe</w>": 9507, "尔</w>": 9508, "SP": 9509, "commun": 9510, "Ach": 9511, "usual</w>": 9512, "および</w>": 9513, "liv": 9514, "sens</w>": 9515, "Rück": 9516, "adora</w>": 9517, "−</w>": 9518, "presented</w>": 9519, "pää": 9520, "dí": 9521, "outros</w>": 9522, "תה</w>": 9523, "1860</w>": 9524, "iti": 9525, "SS": 9526, "κ": 9527, "ată</w>": 9528, "января</w>": 9529, "ister</w>": 9530, "모": 9531, "feder": 9532, "قبل</w>": 9533, "theo</w>": 9534, "zweiten</w>": 9535, "hatten</w>": 9536, "других</w>": 9537, "ého</w>": 9538, "kau": 9539, "ure": 9540, "ό</w>": 9541, "夫</w>": 9542, "unda</w>": 9543, "กับ</w>": 9544, "лення</w>": 9545, "society</w>": 9546, "古": 9547, "зі": 9548, "다": 9549, "cking</w>": 9550, "сті</w>": 9551, ".000</w>": 9552, "تم</w>": 9553, "ply</w>": 9554, "atan</w>": 9555, "1848</w>": 9556, "asing</w>": 9557, "став</w>": 9558, "Van": 9559, "часть</w>": 9560, "amihang-sidlakan</w>": 9561, "番</w>": 9562, "イン": 9563, "há": 9564, "レー": 9565, "z.</w>": 9566, "מא": 9567, "mí": 9568, "wan</w>": 9569, "kop</w>": 9570, "най</w>": 9571, "unu</w>": 9572, "composed</w>": 9573, "ały</w>": 9574, "道": 9575, "Ти": 9576, "吉": 9577, "erd</w>": 9578, "Bell": 9579, "église</w>": 9580, "foc": 9581, "positive</w>": 9582, "wenn</w>": 9583, "genannt</w>": 9584, "Na": 9585, "filme</w>": 9586, "atten": 9587, "Pro</w>": 9588, "aches</w>": 9589, "декабря</w>": 9590, "records</w>": 9591, "oides</w>": 9592, "示</w>": 9593, "convers": 9594, "eira</w>": 9595, "gobierno</w>": 9596, "deuxième</w>": 9597, "お": 9598, "лов</w>": 9599, "tern</w>": 9600, "tó": 9601, "zal": 9602, "etc</w>": 9603, "ową</w>": 9604, "distingu": 9605, "הח": 9606, "01</w>": 9607, "Anne</w>": 9608, "prison</w>": 9609, "Leh": 9610, "cover": 9611, "中央</w>": 9612, "とも</w>": 9613, "yw": 9614, "Naj": 9615, "tigt</w>": 9616, "watching</w>": 9617, "ión</w>": 9618, "receiv": 9619, "Les": 9620, "ню</w>": 9621, "software</w>": 9622, "和": 9623, "fix": 9624, "али": 9625, "ode</w>": 9626, "mil</w>": 9627, "besteht</w>": 9628, "фор": 9629, "ження</w>": 9630, "連": 9631, "italiano</w>": 9632, "classi": 9633, "ury</w>": 9634, "haven</w>": 9635, "置</w>": 9636, "compte</w>": 9637, "lem</w>": 9638, "의": 9639, "тру": 9640, "punkt</w>": 9641, "Bad</w>": 9642, "diferentes</w>": 9643, "Game</w>": 9644, "вели": 9645, "decide</w>": 9646, "地区</w>": 9647, "Aqu": 9648, "kers</w>": 9649, "ták</w>": 9650, "גי": 9651, "ته</w>": 9652, "ème</w>": 9653, "races</w>": 9654, "online</w>": 9655, "アン": 9656, "ään</w>": 9657, "types</w>": 9658, "président</w>": 9659, "Cit": 9660, "лы</w>": 9661, "edad</w>": 9662, "Poly": 9663, "화": 9664, "От": 9665, "వ": 9666, "地方</w>": 9667, "schließlich</w>": 9668, "δ": 9669, "fog": 9670, "safe</w>": 9671, "wind</w>": 9672, "Menschen</w>": 9673, "1887</w>": 9674, "unos</w>": 9675, "with": 9676, "hui</w>": 9677, "мов</w>": 9678, "фе": 9679, "истори": 9680, "Office</w>": 9681, "militar</w>": 9682, "apa</w>": 9683, "ing-": 9684, "fear</w>": 9685, "رة</w>": 9686, "zap": 9687, "sée</w>": 9688, "phát</w>": 9689, "Gold</w>": 9690, "Ils</w>": 9691, "sotto</w>": 9692, "Vic": 9693, "vert</w>": 9694, "qua</w>": 9695, "individuals</w>": 9696, "انی</w>": 9697, "провод": 9698, "között</w>": 9699, "gren": 9700, "increase</w>": 9701, "folgenden</w>": 9702, "représent": 9703, "zah": 9704, "econom": 9705, "получил</w>": 9706, "troops</w>": 9707, "soft</w>": 9708, "Ludwig</w>": 9709, "وب": 9710, "fighting</w>": 9711, "canal</w>": 9712, "anje</w>": 9713, "commit": 9714, "פר": 9715, "egy": 9716, "trees</w>": 9717, "modific": 9718, "falls</w>": 9719, "mainly</w>": 9720, "julio</w>": 9721, "Да": 9722, "quer</w>": 9723, "1871</w>": 9724, "É</w>": 9725, "Bureau</w>": 9726, "join</w>": 9727, "pushed</w>": 9728, "rent</w>": 9729, "Britain</w>": 9730, "Bed": 9731, "Va</w>": 9732, "stories</w>": 9733, "fylke</w>": 9734, "Director</w>": 9735, "liste</w>": 9736, "uli</w>": 9737, "großen</w>": 9738, ".com</w>": 9739, "mayo</w>": 9740, "Ent": 9741, "Andrew</w>": 9742, "која</w>": 9743, "equip": 9744, "environ</w>": 9745, "sever": 9746, "こ": 9747, "amen": 9748, "Fe": 9749, "ა</w>": 9750, "ograph": 9751, "último</w>": 9752, "Al-": 9753, "bury</w>": 9754, "公司</w>": 9755, "лин": 9756, "ців</w>": 9757, "oren</w>": 9758, "iel": 9759, "ಟ</w>": 9760, "rier</w>": 9761, "1884</w>": 9762, "beyond</w>": 9763, "ప": 9764, "П</w>": 9765, "zurück": 9766, "v.</w>": 9767, "Durch</w>": 9768, "provid": 9769, "goes</w>": 9770, "seeing</w>": 9771, "s.</w>": 9772, "ordre</w>": 9773, "Ло": 9774, "дат": 9775, "Пе": 9776, "deutsche</w>": 9777, "ار</w>": 9778, "rance</w>": 9779, "لة</w>": 9780, "ә</w>": 9781, "ница</w>": 9782, "بی": 9783, "stellen</w>": 9784, "Norte</w>": 9785, "albums</w>": 9786, "fly</w>": 9787, "icht": 9788, "semb": 9789, "지</w>": 9790, "Kö": 9791, "mondo</w>": 9792, "ปี</w>": 9793, "dieses</w>": 9794, "Ky": 9795, "shut</w>": 9796, "boreal</w>": 9797, "ismus</w>": 9798, "Spain</w>": 9799, "zou</w>": 9800, "шего</w>": 9801, "condu": 9802, "corso</w>": 9803, "studierte</w>": 9804, "組</w>": 9805, "letter</w>": 9806, "地域</w>": 9807, "Scotland</w>": 9808, "пло": 9809, "поли": 9810, "sto": 9811, "ץ</w>": 9812, "todas</w>": 9813, "может</w>": 9814, "Austria</w>": 9815, "Jewish</w>": 9816, "мя": 9817, "combat</w>": 9818, "кро": 9819, "Bus": 9820, "septembre</w>": 9821, "нај": 9822, "mov": 9823, "記</w>": 9824, "easy</w>": 9825, "ivo</w>": 9826, "diversos</w>": 9827, "niveau</w>": 9828, "רות</w>": 9829, "Mich": 9830, "рав": 9831, "tori</w>": 9832, "Geschichte</w>": 9833, "oft</w>": 9834, "bab": 9835, "cities</w>": 9836, "år": 9837, "bie</w>": 9838, "emi</w>": 9839, "산": 9840, "native</w>": 9841, "neces": 9842, "ét</w>": 9843, "tid": 9844, "hes</w>": 9845, "其中</w>": 9846, "mois</w>": 9847, "orden</w>": 9848, "сон</w>": 9849, "vier": 9850, "financial</w>": 9851, "mehrere</w>": 9852, "دي</w>": 9853, "connec": 9854, "agent</w>": 9855, "region": 9856, "suas</w>": 9857, "four": 9858, "ayant</w>": 9859, "Peak</w>": 9860, "巴": 9861, "ното</w>": 9862, "ając</w>": 9863, "Ca": 9864, "instruc": 9865, "kiss</w>": 9866, "yılında</w>": 9867, "orum</w>": 9868, "comment": 9869, "Arten</w>": 9870, "打": 9871, "hap": 9872, "gdzie</w>": 9873, "savanna</w>": 9874, "oficial</w>": 9875, "aden</w>": 9876, "lassen</w>": 9877, "difficult</w>": 9878, "membre</w>": 9879, "posses": 9880, "ulo</w>": 9881, "ії</w>": 9882, "tionen</w>": 9883, "Rol": 9884, "80": 9885, "Minnesota</w>": 9886, "rok</w>": 9887, "ًا</w>": 9888, "homme</w>": 9889, "neighbor": 9890, "paid</w>": 9891, "ihrem</w>": 9892, "Jim</w>": 9893, "aker</w>": 9894, "strateg": 9895, "década</w>": 9896, "kni": 9897, "Ха": 9898, "要</w>": 9899, "benef": 9900, "lack</w>": 9901, "ара</w>": 9902, "июля</w>": 9903, "אך</w>": 9904, "ancient</w>": 9905, "Sverige</w>": 9906, "tice</w>": 9907, "рай": 9908, "letzten</w>": 9909, "esis</w>": 9910, "acqu": 9911, "nac": 9912, "importantes</w>": 9913, "ours</w>": 9914, "sett": 9915, "animal</w>": 9916, "Tru": 9917, "assi": 9918, "veel</w>": 9919, "Night</w>": 9920, "pseud": 9921, "edu": 9922, "pinakaduol</w>": 9923, "Magnoliopsida</w>": 9924, "genre</w>": 9925, "ems</w>": 9926, "ał": 9927, "น</w>": 9928, "List</w>": 9929, "nommé</w>": 9930, "вано</w>": 9931, "話</w>": 9932, "ед": 9933, "قا": 9934, "popular": 9935, "Santo</w>": 9936, "cars</w>": 9937, "pec": 9938, "2nd</w>": 9939, "Ken": 9940, "Zeit": 9941, "день</w>": 9942, "elet": 9943, "Según</w>": 9944, "debido</w>": 9945, "growing</w>": 9946, "Ras": 9947, "jour</w>": 9948, "throat</w>": 9949, "visini</w>": 9950, "Ту": 9951, "SS</w>": 9952, "bas</w>": 9953, "ロー": 9954, "DC</w>": 9955, "broken</w>": 9956, "еле": 9957, "után</w>": 9958, "dun": 9959, "nio</w>": 9960, "bộ</w>": 9961, "1864</w>": 9962, "nast": 9963, "тин": 9964, "Pad": 9965, "هٔ</w>": 9966, "numbers</w>": 9967, "Las": 9968, "İ": 9969, "Poland</w>": 9970, "cultura</w>": 9971, "provides</w>": 9972, "fatto</w>": 9973, "ə": 9974, "speak</w>": 9975, "bay</w>": 9976, "vagy</w>": 9977, "uss</w>": 9978, "wen": 9979, "Vo": 9980, "nó</w>": 9981, "Volks": 9982, "Finland</w>": 9983, "bour": 9984, "miejsce</w>": 9985, "entonces</w>": 9986, "Cos": 9987, "surpris": 9988, "Ces</w>": 9989, "אל</w>": 9990, "кою</w>": 9991, "sehen</w>": 9992, "在": 9993, "etc.</w>": 9994, "el-": 9995, "inu</w>": 9996, "多く</w>": 9997, "タ</w>": 9998, "Sam</w>": 9999, "presenta</w>": 10000, "planned</w>": 10001, "superior</w>": 10002, "dues</w>": 10003, "iker</w>": 10004, "тора</w>": 10005, "pre-": 10006, "spoke</w>": 10007, "ES": 10008, "stag": 10009, "сту": 10010, "musi": 10011, "von": 10012, "Мексику</w>": 10013, "已</w>": 10014, "wiel": 10015, "sleep</w>": 10016, "modern": 10017, "jou": 10018, "Га": 10019, "geen</w>": 10020, "leta</w>": 10021, "hành</w>": 10022, "Branch</w>": 10023, "tiin</w>": 10024, "റെ</w>": 10025, "22.</w>": 10026, "junio</w>": 10027, "removed</w>": 10028, "Arizona</w>": 10029, "campus</w>": 10030, "Wien</w>": 10031, "países</w>": 10032, "중": 10033, "walls</w>": 10034, "ун": 10035, "prime</w>": 10036, "сан": 10037, "RE": 10038, "dru": 10039, "prä": 10040, "கும</w>": 10041, "aar": 10042, "Tex": 10043, "Roger</w>": 10044, "平方公里</w>": 10045, "conduc": 10046, "ém</w>": 10047, "steps</w>": 10048, "сентября</w>": 10049, "ST": 10050, "recording</w>": 10051, "דים</w>": 10052, "subsequently</w>": 10053, "Py": 10054, "Sek": 10055, "населения</w>": 10056, "già</w>": 10057, "рами</w>": 10058, "リー": 10059, "Another</w>": 10060, "chan": 10061, "кли": 10062, "которая</w>": 10063, "producer</w>": 10064, "heav": 10065, "igo</w>": 10066, "första</w>": 10067, "ему</w>": 10068, "championship</w>": 10069, "1882</w>": 10070, "Camp": 10071, "au-": 10072, "Tod</w>": 10073, "tung</w>": 10074, "яв": 10075, "roman</w>": 10076, "extended</w>": 10077, "ఈ</w>": 10078, "jes</w>": 10079, "రా": 10080, "belong": 10081, "živelo</w>": 10082, "Во": 10083, "ín": 10084, "tag</w>": 10085, "頭</w>": 10086, "20-": 10087, "ја": 10088, "фо": 10089, "Kab": 10090, "rí": 10091, "ი</w>": 10092, "נים</w>": 10093, "ヤ": 10094, "fut": 10095, "Sun</w>": 10096, "Hong</w>": 10097, "vill": 10098, "teil": 10099, "ried</w>": 10100, "選</w>": 10101, "či</w>": 10102, "ద": 10103, "سو": 10104, "technology</w>": 10105, "alty</w>": 10106, "ヴィ": 10107, "зан": 10108, "tail</w>": 10109, "memiliki</w>": 10110, "フェ": 10111, "死</w>": 10112, "gens</w>": 10113, "лу</w>": 10114, "concept</w>": 10115, "Lady</w>": 10116, "inde</w>": 10117, "poly": 10118, "gang": 10119, "Gener": 10120, "Corps</w>": 10121, "amount</w>": 10122, "gada</w>": 10123, "č</w>": 10124, "communes</w>": 10125, "Three</w>": 10126, "своей</w>": 10127, "consists</w>": 10128, "вич</w>": 10129, "amihanan-sidlakang</w>": 10130, "對": 10131, "民": 10132, "flor": 10133, "alleg": 10134, "Sant": 10135, "questions</w>": 10136, "nadmorskoj</w>": 10137, "нее</w>": 10138, "開発</w>": 10139, "gebied</w>": 10140, "成": 10141, "Miss</w>": 10142, "dapat</w>": 10143, "classe</w>": 10144, "sot": 10145, "利用</w>": 10146, "الر": 10147, "juillet</w>": 10148, "193": 10149, "lade</w>": 10150, "ヘ": 10151, "share</w>": 10152, "ラン": 10153, "uni</w>": 10154, "оди": 10155, "dorf</w>": 10156, "algunos</w>": 10157, "competed</w>": 10158, "Hin": 10159, "manifest": 10160, "အ": 10161, "Feder": 10162, "diesen</w>": 10163, "onen</w>": 10164, "ந</w>": 10165, "зе": 10166, "вал": 10167, "Wood": 10168, "allerdings</w>": 10169, "個</w>": 10170, "raid</w>": 10171, "rue</w>": 10172, "ств</w>": 10173, "ildə</w>": 10174, "rut": 10175, "digital</w>": 10176, "kat</w>": 10177, "教育</w>": 10178, "בית</w>": 10179, "ices</w>": 10180, "three-": 10181, "Iz": 10182, "Mem": 10183, "aquesta</w>": 10184, "aggi": 10185, "Oxford</w>": 10186, "große</w>": 10187, "ob</w>": 10188, "fica</w>": 10189, "dea</w>": 10190, "当": 10191, "rik</w>": 10192, "1863</w>": 10193, "октября</w>": 10194, "々</w>": 10195, "1881</w>": 10196, "28.</w>": 10197, "firm</w>": 10198, "Ah": 10199, "nost": 10200, "läng": 10201, "rup": 10202, "vě": 10203, "carrera</w>": 10204, "descri": 10205, "AD": 10206, "rural</w>": 10207, "كما</w>": 10208, "governo</w>": 10209, "Parliament</w>": 10210, "дру": 10211, "cust": 10212, "ogni</w>": 10213, "Route</w>": 10214, "diff": 10215, "policy</w>": 10216, "aza</w>": 10217, "ň": 10218, "libro</w>": 10219, "Avenue</w>": 10220, "áz": 10221, "secon": 10222, "בו</w>": 10223, "sector</w>": 10224, "所": 10225, "Vas": 10226, "tha</w>": 10227, "celui</w>": 10228, "tegen</w>": 10229, "raj": 10230, "発売</w>": 10231, "fair</w>": 10232, "полити": 10233, "build</w>": 10234, "minor</w>": 10235, "septiembre</w>": 10236, "inici": 10237, "akti": 10238, "classes</w>": 10239, "oe</w>": 10240, "Minist": 10241, "soll</w>": 10242, "kum": 10243, "kot": 10244, "Census</w>": 10245, "ká": 10246, "сел": 10247, "bygg": 10248, "porta</w>": 10249, "otra</w>": 10250, "Post</w>": 10251, "Natur": 10252, "commission": 10253, "presence</w>": 10254, "zem": 10255, "уз": 10256, "squadra</w>": 10257, "anci": 10258, "fam": 10259, "以及</w>": 10260, "reven": 10261, "ple</w>": 10262, "espèce</w>": 10263, "aggio</w>": 10264, "Κ": 10265, "立": 10266, "保": 10267, "dos": 10268, "habit": 10269, "ев": 10270, "temple</w>": 10271, "なお</w>": 10272, "ką</w>": 10273, "Radi": 10274, "pred": 10275, "PC</w>": 10276, "ē": 10277, "Disney</w>": 10278, "command": 10279, "っ": 10280, "AP": 10281, "Flor": 10282, "UEFA</w>": 10283, "ogen": 10284, "latter</w>": 10285, "terra</w>": 10286, "viv": 10287, "brig": 10288, "Despite</w>": 10289, "字</w>": 10290, "июня</w>": 10291, "sö": 10292, "illing</w>": 10293, "шли</w>": 10294, "зе</w>": 10295, "Amsterdam</w>": 10296, "Kilometer</w>": 10297, "cions</w>": 10298, "sollte</w>": 10299, "安</w>": 10300, "卡": 10301, "zenia</w>": 10302, "editor</w>": 10303, "web</w>": 10304, "región</w>": 10305, "grad</w>": 10306, "etan</w>": 10307, "Coast</w>": 10308, "unding</w>": 10309, "kiego</w>": 10310, "ignor": 10311, "vista</w>": 10312, "rob": 10313, "card</w>": 10314, "\\)</w>": 10315, "жан": 10316, "finals</w>": 10317, "gul": 10318, "щен": 10319, "Assembly</w>": 10320, "human": 10321, "fab": 10322, "arten</w>": 10323, "Institut</w>": 10324, "مع": 10325, "anas</w>": 10326, "interno</w>": 10327, "חי": 10328, "노": 10329, "ія</w>": 10330, "kwam</w>": 10331, "seasons</w>": 10332, "prior</w>": 10333, "Venezuela</w>": 10334, "Order</w>": 10335, "Cerambycidae</w>": 10336, "Mach": 10337, "ają</w>": 10338, "24.</w>": 10339, "1861</w>": 10340, "eze</w>": 10341, "車": 10342, "றும</w>": 10343, "estar</w>": 10344, "Golden</w>": 10345, "rir</w>": 10346, "จาก</w>": 10347, "geslacht</w>": 10348, "Kim</w>": 10349, "23.</w>": 10350, "信": 10351, "settled</w>": 10352, "beste</w>": 10353, "Manchester</w>": 10354, "科": 10355, "Rep": 10356, "نی": 10357, "ёт</w>": 10358, "Gall": 10359, "Nic": 10360, "fav": 10361, "交": 10362, "вин": 10363, "pren": 10364, "格</w>": 10365, "nin": 10366, "secret</w>": 10367, "América</w>": 10368, "чки</w>": 10369, "ಯ</w>": 10370, "esia</w>": 10371, "identific": 10372, "ят": 10373, "souvent</w>": 10374, "Gru": 10375, "Missouri</w>": 10376, "existence</w>": 10377, "maior</w>": 10378, "تح": 10379, "ری": 10380, "existe</w>": 10381, "ských</w>": 10382, "oil</w>": 10383, "octobre</w>": 10384, "wieku</w>": 10385, "Anfang</w>": 10386, "biolog": 10387, "ν": 10388, "council</w>": 10389, "divided</w>": 10390, "זו</w>": 10391, "janvier</w>": 10392, "Ze</w>": 10393, "Sec": 10394, "is-": 10395, "rian</w>": 10396, "объ": 10397, "diver": 10398, "Historic</w>": 10399, "rh": 10400, "Vin": 10401, "kasarangan</w>": 10402, "Sport": 10403, "кова</w>": 10404, "heim": 10405, "partner</w>": 10406, "ющий</w>": 10407, "Jawa</w>": 10408, "точ": 10409, "amihanan-kasadpang</w>": 10410, "할</w>": 10411, "ά</w>": 10412, "titolo</w>": 10413, "enero</w>": 10414, "Shar": 10415, "pur</w>": 10416, "ファ": 10417, "hal</w>": 10418, "fan": 10419, "denomin": 10420, "emis": 10421, "のみ</w>": 10422, "1865</w>": 10423, "cting</w>": 10424, "tone</w>": 10425, "ј</w>": 10426, "ami": 10427, "pels</w>": 10428, "Для</w>": 10429, "value</w>": 10430, "sino</w>": 10431, "ο": 10432, "Samuel</w>": 10433, "leaves</w>": 10434, "без": 10435, "解": 10436, "cil": 10437, "tok": 10438, "Dutch</w>": 10439, "eck": 10440, "గ": 10441, "smaller</w>": 10442, "concer": 10443, "אר": 10444, "seconds</w>": 10445, "gaz": 10446, "München</w>": 10447, "cup": 10448, "además</w>": 10449, "дел</w>": 10450, "stairs</w>": 10451, "osz": 10452, "moder": 10453, "Ret": 10454, "店</w>": 10455, "ied": 10456, "physical</w>": 10457, "Bog": 10458, "진": 10459, "rice</w>": 10460, "intended</w>": 10461, "ена</w>": 10462, "colleg": 10463, "ору": 10464, "które</w>": 10465, "師</w>": 10466, "lop": 10467, "glob": 10468, "halten</w>": 10469, "Nueva</w>": 10470, "eniu</w>": 10471, "Hier": 10472, "lus": 10473, "aantal</w>": 10474, "Fernando</w>": 10475, "знач": 10476, "nar</w>": 10477, "hebben</w>": 10478, "чного</w>": 10479, "obvi": 10480, "파": 10481, "dette</w>": 10482, "well-": 10483, "1862</w>": 10484, "propor": 10485, "picked</w>": 10486, "ات": 10487, "ити": 10488, "כי": 10489, "界</w>": 10490, "multiple</w>": 10491, "Castle</w>": 10492, "een": 10493, "ński</w>": 10494, "nije</w>": 10495, "ość</w>": 10496, "största</w>": 10497, "Brian</w>": 10498, "無</w>": 10499, "tore</w>": 10500, "infra": 10501, "toda</w>": 10502, "після</w>": 10503, "no-": 10504, "oč": 10505, "باشد</w>": 10506, "Tennessee</w>": 10507, "igu": 10508, "caus": 10509, "grado</w>": 10510, "ým</w>": 10511, "asse</w>": 10512, "stav": 10513, "авто": 10514, "Kop": 10515, "ji": 10516, "役</w>": 10517, "IC": 10518, "образо": 10519, "Ma</w>": 10520, "ident": 10521, "czy</w>": 10522, "mile</w>": 10523, "jeu</w>": 10524, "шие</w>": 10525, "ські</w>": 10526, "NBA</w>": 10527, "alar": 10528, "pola</w>": 10529, "ザ": 10530, "През</w>": 10531, "стали</w>": 10532, "1879</w>": 10533, "wes": 10534, "protection</w>": 10535, "სა": 10536, "bylo</w>": 10537, "кру": 10538, "blieb</w>": 10539, "эк": 10540, "effort</w>": 10541, "использо": 10542, "individu": 10543, "народ": 10544, "ப</w>": 10545, "tir": 10546, "Μ": 10547, "verse</w>": 10548, "1日</w>": 10549, "Home</w>": 10550, "пов": 10551, "있는</w>": 10552, "frente</w>": 10553, "國</w>": 10554, "王": 10555, "acting</w>": 10556, "先": 10557, "rule</w>": 10558, "ulu</w>": 10559, "h-": 10560, "lake</w>": 10561, "ully</w>": 10562, "eres</w>": 10563, "љ": 10564, "2011.</w>": 10565, "Stephen</w>": 10566, "afin</w>": 10567, "bast": 10568, "acquired</w>": 10569, "spring</w>": 10570, "overall</w>": 10571, "Bron": 10572, "insieme</w>": 10573, "shif": 10574, "Пре": 10575, "र": 10576, "eerd</w>": 10577, "త": 10578, "ność</w>": 10579, "kut": 10580, "draw</w>": 10581, "attem": 10582, "just": 10583, "cum": 10584, "рабо": 10585, "yar": 10586, "apenas</w>": 10587, "населення</w>": 10588, "プロ": 10589, "Nik": 10590, "mö": 10591, "führt</w>": 10592, "Вы": 10593, "ίας</w>": 10594, "состоя": 10595, "0,000</w>": 10596, "ew</w>": 10597, "ace": 10598, "aby</w>": 10599, "Gul": 10600, "ট</w>": 10601, "sf": 10602, "апреля</w>": 10603, "27.</w>": 10604, "depois</w>": 10605, "коло": 10606, "simil": 10607, "1876</w>": 10608, "iem</w>": 10609, "Michel</w>": 10610, "foreign</w>": 10611, "وم": 10612, "hundred</w>": 10613, "isse</w>": 10614, "1883</w>": 10615, "ith": 10616, "send</w>": 10617, "sł": 10618, "broadcast</w>": 10619, "két</w>": 10620, "개": 10621, "Mill": 10622, "像</w>": 10623, "בע": 10624, "26.</w>": 10625, "Hollywood</w>": 10626, "затем</w>": 10627, "军</w>": 10628, "turning</w>": 10629, "τ": 10630, "tradition</w>": 10631, "Bé": 10632, "группы</w>": 10633, "190": 10634, "fying</w>": 10635, "Ric": 10636, "På</w>": 10637, "Janeiro</w>": 10638, "estre": 10639, "шла</w>": 10640, "mel</w>": 10641, "лов": 10642, "interpre": 10643, "programme</w>": 10644, "follow</w>": 10645, "Earth</w>": 10646, "Lov": 10647, "Kultur": 10648, "ports</w>": 10649, "clar": 10650, "captain</w>": 10651, "rus</w>": 10652, "リア</w>": 10653, "truth</w>": 10654, "Tag": 10655, "Pit": 10656, "木": 10657, "vak": 10658, "borough</w>": 10659, "orang</w>": 10660, "Campeonato</w>": 10661, "largo</w>": 10662, "тя": 10663, "Form</w>": 10664, "ト</w>": 10665, "gewählt</w>": 10666, "memory</w>": 10667, "tỉnh</w>": 10668, "AG</w>": 10669, "Rum": 10670, "agli</w>": 10671, "iar</w>": 10672, "reci": 10673, "白": 10674, "stal</w>": 10675, "10,": 10676, "1980s</w>": 10677, "presente</w>": 10678, "Cour": 10679, "toc": 10680, "spot</w>": 10681, "udi": 10682, "ط</w>": 10683, "рин": 10684, "će</w>": 10685, "井</w>": 10686, "לי</w>": 10687, "60": 10688, "ให้</w>": 10689, "missed</w>": 10690, "lied</w>": 10691, "Gebiet</w>": 10692, "recognized</w>": 10693, "gall": 10694, "ები</w>": 10695, "Lincoln</w>": 10696, "oltre</w>": 10697, "atory</w>": 10698, "Islands</w>": 10699, "brown</w>": 10700, "Patrick</w>": 10701, "ред": 10702, "ahead</w>": 10703, "ower</w>": 10704, "están</w>": 10705, "alism</w>": 10706, "kę</w>": 10707, "1867</w>": 10708, "位置</w>": 10709, "gel</w>": 10710, "zan": 10711, "bang</w>": 10712, "ń</w>": 10713, "colum": 10714, "ogen</w>": 10715, "真": 10716, "proposed</w>": 10717, "φ": 10718, "ך</w>": 10719, "border</w>": 10720, "gouvernement</w>": 10721, "бал": 10722, "ում</w>": 10723, "substan": 10724, "доро": 10725, "serious</w>": 10726, "перед": 10727, "graduated</w>": 10728, "anja</w>": 10729, "geben</w>": 10730, "cial</w>": 10731, "ラー</w>": 10732, "pole</w>": 10733, "хи</w>": 10734, "Cape</w>": 10735, "ible</w>": 10736, "eber": 10737, "110</w>": 10738, "dale</w>": 10739, "Div": 10740, "ného</w>": 10741, "участие</w>": 10742, "females</w>": 10743, "город</w>": 10744, "ゼ": 10745, "se-": 10746, "две</w>": 10747, "lebih</w>": 10748, "By": 10749, "sap": 10750, "vice</w>": 10751, "warm</w>": 10752, "boat</w>": 10753, "ора</w>": 10754, "honor": 10755, "ecz": 10756, "ซึ่ง</w>": 10757, "ancien</w>": 10758, "quest": 10759, "leri</w>": 10760, "12-": 10761, "XVII</w>": 10762, "vall": 10763, "Desde</w>": 10764, "arding</w>": 10765, "opo": 10766, "Quebrada</w>": 10767, "کند</w>": 10768, "раз</w>": 10769, "アル": 10770, "پر</w>": 10771, "سر": 10772, "encias</w>": 10773, "iles</w>": 10774, "ким</w>": 10775, "그</w>": 10776, "反": 10777, "industrial</w>": 10778, "gare</w>": 10779, "以上</w>": 10780, "finish</w>": 10781, "teurs</w>": 10782, "frequ": 10783, "suspen": 10784, "サン": 10785, "Had": 10786, "inju": 10787, "ゲ": 10788, "ū</w>": 10789, "ниях</w>": 10790, "rou</w>": 10791, "Cant": 10792, "ª</w>": 10793, "извест": 10794, "zaj": 10795, "185": 10796, "χ": 10797, "décembre</w>": 10798, "fem": 10799, "شهر</w>": 10800, "Oregon</w>": 10801, "naselju</w>": 10802, "historical</w>": 10803, "気</w>": 10804, "ής</w>": 10805, "AL": 10806, "алась</w>": 10807, "eil</w>": 10808, "ilk</w>": 10809, "ston</w>": 10810, "crew</w>": 10811, "пор": 10812, "ى</w>": 10813, "Stockholm</w>": 10814, "нич": 10815, "послед": 10816, "twe": 10817, "bling</w>": 10818, "wd</w>": 10819, "levels</w>": 10820, "нова</w>": 10821, "critic": 10822, "asz": 10823, "Dur": 10824, "jug": 10825, "imento</w>": 10826, "host</w>": 10827, "ющих</w>": 10828, "Congo</w>": 10829, "restaur": 10830, "choice</w>": 10831, "восто": 10832, "も": 10833, "parish</w>": 10834, "shoul": 10835, "空": 10836, "samen</w>": 10837, "問題</w>": 10838, "bili</w>": 10839, "centrale</w>": 10840, "diciembre</w>": 10841, "ète</w>": 10842, "politician</w>": 10843, "function</w>": 10844, "sni": 10845, "Dist": 10846, "ней": 10847, "walking</w>": 10848, "Democratic</w>": 10849, "品</w>": 10850, "پی": 10851, "Will": 10852, "skom</w>": 10853, "apart": 10854, "map": 10855, "рей": 10856, "concent": 10857, "nisse</w>": 10858, "contest": 10859, "08</w>": 10860, "Lé": 10861, "high-": 10862, "eken</w>": 10863, "ü</w>": 10864, "M.": 10865, "tätig</w>": 10866, "재": 10867, "thị</w>": 10868, "35": 10869, "たち</w>": 10870, "这</w>": 10871, "Unternehmen</w>": 10872, "Sup": 10873, "seri": 10874, "usz": 10875, "tro</w>": 10876, "Hi": 10877, "seems</w>": 10878, "losing</w>": 10879, "rö": 10880, "wobei</w>": 10881, "別</w>": 10882, "постав": 10883, "admit": 10884, "аб": 10885, "virtu": 10886, "zas": 10887, "дра": 10888, "艦</w>": 10889, "lying</w>": 10890, "הס": 10891, "остав": 10892, "Kirch": 10893, "gegründet</w>": 10894, "ント</w>": 10895, "specific": 10896, "tienen</w>": 10897, "政</w>": 10898, "offer": 10899, "eko</w>": 10900, "percent</w>": 10901, "kde</w>": 10902, "jaren</w>": 10903, "needs</w>": 10904, "Cambridge</w>": 10905, "남": 10906, "結</w>": 10907, "pressure</w>": 10908, "oja</w>": 10909, "Frau</w>": 10910, "Tem": 10911, "quality</w>": 10912, "brand</w>": 10913, "Stadium</w>": 10914, "hod": 10915, "vod": 10916, "broad": 10917, "constructed</w>": 10918, "prendre</w>": 10919, "cky</w>": 10920, "Diptera</w>": 10921, "Je</w>": 10922, "semi-": 10923, "fill</w>": 10924, "wra": 10925, "Indiana</w>": 10926, "ader</w>": 10927, "erfolgte</w>": 10928, "madre</w>": 10929, "Mic": 10930, "channel</w>": 10931, "находится</w>": 10932, "שה</w>": 10933, "ה-": 10934, "products</w>": 10935, "Amt</w>": 10936, "важ": 10937, "flight</w>": 10938, "Kabukiran</w>": 10939, "ù</w>": 10940, "встре": 10941, "Both</w>": 10942, "door": 10943, "ган</w>": 10944, "ße</w>": 10945, "ising</w>": 10946, "ization</w>": 10947, "1868</w>": 10948, "نفر</w>": 10949, "avril</w>": 10950, "screen</w>": 10951, "mint</w>": 10952, "pent": 10953, "цу</w>": 10954, "lose</w>": 10955, "вместе</w>": 10956, "四": 10957, "vad": 10958, "鉄道</w>": 10959, "Christ": 10960, "Stone</w>": 10961, "Rap": 10962, "še</w>": 10963, "gol</w>": 10964, "Rin": 10965, "numero</w>": 10966, "proprio</w>": 10967, "R-": 10968, "stellt</w>": 10969, "tera</w>": 10970, "recently</w>": 10971, "aten": 10972, "歳</w>": 10973, "permit": 10974, "производ": 10975, "finales</w>": 10976, "ப": 10977, "pression</w>": 10978, "Victor</w>": 10979, "1875</w>": 10980, "続</w>": 10981, "C.": 10982, "\\/</w>": 10983, "icamente</w>": 10984, "kalibonan</w>": 10985, "IUCN</w>": 10986, "tall</w>": 10987, "кам</w>": 10988, "正</w>": 10989, "Carlo</w>": 10990, "owania</w>": 10991, "Long": 10992, "sü": 10993, "iji</w>": 10994, "لی": 10995, "she": 10996, "ellen": 10997, "bland</w>": 10998, "casi</w>": 10999, "stor</w>": 11000, "urban": 11001, "tenia</w>": 11002, "chỉ</w>": 11003, "εν": 11004, "opp</w>": 11005, "armée</w>": 11006, "thé": 11007, "rej": 11008, "призна": 11009, "Phil": 11010, "ի</w>": 11011, "efforts</w>": 11012, "grund": 11013, "ship": 11014, "dus</w>": 11015, "doit</w>": 11016, "180</w>": 11017, "install": 11018, "XV</w>": 11019, "otro</w>": 11020, "twice</w>": 11021, "ák</w>": 11022, "マン</w>": 11023, "город": 11024, "août</w>": 11025, "리</w>": 11026, "発</w>": 11027, "lord</w>": 11028, "loved</w>": 11029, "θ": 11030, "implement": 11031, "enci": 11032, "việc</w>": 11033, "מע": 11034, "її</w>": 11035, "competit": 11036, "1866</w>": 11037, "tim</w>": 11038, "highly</w>": 11039, "Kansas</w>": 11040, "versions</w>": 11041, "Naselje</w>": 11042, "/": 11043, "Patri": 11044, "orde</w>": 11045, "作": 11046, "Middle</w>": 11047, "近": 11048, "Malaysia</w>": 11049, "ヴァ": 11050, "quel</w>": 11051, "Π": 11052, "issued</w>": 11053, "zent": 11054, "gives</w>": 11055, "revealed</w>": 11056, "vas</w>": 11057, "12.": 11058, "machine</w>": 11059, "Hotel</w>": 11060, "Lou": 11061, "橋</w>": 11062, "кур": 11063, "pist": 11064, "æ": 11065, "1500</w>": 11066, "visible</w>": 11067, "eaux</w>": 11068, "kad</w>": 11069, "PS": 11070, "05</w>": 11071, "bagian</w>": 11072, "эн": 11073, "período</w>": 11074, "ых</w>": 11075, "ದ</w>": 11076, "mentioned</w>": 11077, "окру": 11078, "ioni</w>": 11079, "altro</w>": 11080, "tendo</w>": 11081, "metres</w>": 11082, "echter</w>": 11083, "singles</w>": 11084, "newspaper</w>": 11085, "去</w>": 11086, "FIFA</w>": 11087, "04</w>": 11088, "transfer": 11089, "1850</w>": 11090, "spéci": 11091, "papel</w>": 11092, "dae</w>": 11093, "chu": 11094, "rom</w>": 11095, "пара": 11096, "大会</w>": 11097, "coast</w>": 11098, "Vier": 11099, "ジェ": 11100, "関</w>": 11101, "sexu": 11102, "região</w>": 11103, "rying</w>": 11104, "船</w>": 11105, "khác</w>": 11106, "corps</w>": 11107, "Ec": 11108, "Mario</w>": 11109, "slow</w>": 11110, "quốc</w>": 11111, "shad": 11112, "かけ</w>": 11113, "И</w>": 11114, "gab": 11115, "1873</w>": 11116, "мой</w>": 11117, "sost": 11118, "usta</w>": 11119, "pier": 11120, "emen</w>": 11121, "29.</w>": 11122, "Tun": 11123, "事件</w>": 11124, "тий</w>": 11125, "ningar</w>": 11126, "Cul": 11127, "aded</w>": 11128, "Ernst</w>": 11129, "owski</w>": 11130, "cet</w>": 11131, "基": 11132, "oda</w>": 11133, "част": 11134, "már</w>": 11135, "stan</w>": 11136, "다</w>": 11137, "ament": 11138, "Би": 11139, "stad": 11140, "身</w>": 11141, "ink": 11142, "Dro": 11143, "يت": 11144, "Ot": 11145, "段</w>": 11146, "وقد</w>": 11147, "vamp": 11148, "過": 11149, "uen</w>": 11150, "用い</w>": 11151, "шо": 11152, "views</w>": 11153, "jac": 11154, "partner": 11155, "phase</w>": 11156, "spir": 11157, "oud</w>": 11158, "rang": 11159, "gmina</w>": 11160, "ald</w>": 11161, "1872</w>": 11162, "uy": 11163, "evo</w>": 11164, "preci": 11165, "Master</w>": 11166, "prov": 11167, "sión</w>": 11168, "1970s</w>": 11169, "tam</w>": 11170, "siguiente</w>": 11171, "risk</w>": 11172, "ита": 11173, "bez</w>": 11174, "bog": 11175, "nier</w>": 11176, "ać</w>": 11177, "ไป</w>": 11178, "тер</w>": 11179, "動": 11180, "歌</w>": 11181, "Social</w>": 11182, "била</w>": 11183, "Roman": 11184, "1877</w>": 11185, "Stand</w>": 11186, "актив": 11187, "однако</w>": 11188, "100": 11189, "堂</w>": 11190, "median</w>": 11191, "ало": 11192, "destroyed</w>": 11193, "luego</w>": 11194, "may": 11195, "Douglas</w>": 11196, "області</w>": 11197, "abol": 11198, "supp": 11199, "dispar": 11200, "ён": 11201, "רת</w>": 11202, "мм</w>": 11203, "вид</w>": 11204, "så": 11205, "viele</w>": 11206, "pol</w>": 11207, "chiến</w>": 11208, "vio</w>": 11209, "कर</w>": 11210, "rise</w>": 11211, "ს</w>": 11212, "officially</w>": 11213, "елей</w>": 11214, "Α": 11215, "concert</w>": 11216, "Однако</w>": 11217, "quattro</w>": 11218, "však</w>": 11219, "powerful</w>": 11220, "ноября</w>": 11221, "purpose</w>": 11222, "ایک</w>": 11223, "Om": 11224, "AM</w>": 11225, "ер</w>": 11226, "Channel</w>": 11227, "市": 11228, "ут": 11229, "sir</w>": 11230, "niej</w>": 11231, "וא": 11232, "Duke</w>": 11233, "onne</w>": 11234, "gy</w>": 11235, "Mitte</w>": 11236, "tics</w>": 11237, "Под": 11238, "Port": 11239, "chil": 11240, "hard": 11241, "Гу": 11242, "André</w>": 11243, "ато": 11244, "thế</w>": 11245, "פו": 11246, "9,": 11247, "ließ</w>": 11248, "ській</w>": 11249, "rik": 11250, "務</w>": 11251, "eigh": 11252, "ال</w>": 11253, "Eric</w>": 11254, "terror": 11255, "Miller</w>": 11256, "perfect</w>": 11257, "consci": 11258, "sts</w>": 11259, "hs</w>": 11260, "Lungsod</w>": 11261, "உள</w>": 11262, "sunt</w>": 11263, "нам</w>": 11264, "19th</w>": 11265, "anes</w>": 11266, "atri": 11267, "チーム</w>": 11268, "tamente</w>": 11269, "eping</w>": 11270, "namn</w>": 11271, "jer</w>": 11272, "dirig": 11273, "ένα</w>": 11274, "posed</w>": 11275, "Мі": 11276, "finden</w>": 11277, "ości</w>": 11278, "necessary</w>": 11279, "1874</w>": 11280, "kiu</w>": 11281, "الخ": 11282, "ensch": 11283, "aliment": 11284, "erade</w>": 11285, "Ş": 11286, "Also</w>": 11287, "കുന</w>": 11288, "意</w>": 11289, "fifth</w>": 11290, "70": 11291, "Journal</w>": 11292, "ds": 11293, "SA</w>": 11294, "одного</w>": 11295, "lande</w>": 11296, "eke</w>": 11297, "basketball</w>": 11298, "DE": 11299, "био</w>": 11300, "pus</w>": 11301, "noviembre</w>": 11302, "ها": 11303, "1,5</w>": 11304, "yj": 11305, "ainda</w>": 11306, "guard</w>": 11307, "дар": 11308, "除</w>": 11309, "foot": 11310, "качестве</w>": 11311, "公</w>": 11312, "Nachdem</w>": 11313, "初": 11314, "平</w>": 11315, "ím</w>": 11316, "rer": 11317, "celebr": 11318, "ати</w>": 11319, "Pun": 11320, "Cham": 11321, "user</w>": 11322, "ty-": 11323, "γ": 11324, "ني": 11325, "--</w>": 11326, "entemente</w>": 11327, "hip": 11328, "History</w>": 11329, "hof</w>": 11330, "sed": 11331, "spra": 11332, "tened</w>": 11333, "relations</w>": 11334, "IX</w>": 11335, "fellow</w>": 11336, "Band": 11337, "Philadelphia</w>": 11338, "haber</w>": 11339, "tima</w>": 11340, "Thor": 11341, "στις</w>": 11342, "promoted</w>": 11343, "הכ": 11344, "гал": 11345, "baz": 11346, "הב": 11347, "berger</w>": 11348, "위": 11349, "residents</w>": 11350, "тия</w>": 11351, "anterior</w>": 11352, "español</w>": 11353, "Network</w>": 11354, "М</w>": 11355, "primarily</w>": 11356, "務め</w>": 11357, "Hof": 11358, "ится</w>": 11359, "cùng</w>": 11360, "dua</w>": 11361, "Sierra</w>": 11362, "nato</w>": 11363, "universit": 11364, "pass": 11365, "20th</w>": 11366, "nici</w>": 11367, "mou": 11368, "сам</w>": 11369, "最": 11370, "gruppe</w>": 11371, "mana</w>": 11372, "ateur</w>": 11373, "Est</w>": 11374, "aid": 11375, "expl": 11376, "선": 11377, "vorg": 11378, "olla</w>": 11379, "dins</w>": 11380, "Cri": 11381, "core</w>": 11382, "trag": 11383, "Tet": 11384, "já</w>": 11385, "poz": 11386, "出場</w>": 11387, "Isl": 11388, "estadounidense</w>": 11389, "alle": 11390, "polo</w>": 11391, "officers</w>": 11392, "cinq</w>": 11393, "a.": 11394, "הייתה</w>": 11395, "tea</w>": 11396, "website</w>": 11397, "光": 11398, "XIII</w>": 11399, "accepted</w>": 11400, "mountain</w>": 11401, "осіб</w>": 11402, "رات</w>": 11403, "மற</w>": 11404, "ép": 11405, "Ful": 11406, "knowledge</w>": 11407, "buried</w>": 11408, "Sports</w>": 11409, "Cav": 11410, "actu": 11411, "ités</w>": 11412, "vely</w>": 11413, "unn": 11414, "rab": 11415, "folge</w>": 11416, "たり</w>": 11417, "VIII</w>": 11418, "effet</w>": 11419, "которого</w>": 11420, "чения</w>": 11421, "שו": 11422, "包括</w>": 11423, "Fab": 11424, "visit</w>": 11425, "Zweiten</w>": 11426, "타": 11427, "社会</w>": 11428, "Bridge</w>": 11429, "ss</w>": 11430, "יותר</w>": 11431, "Zah": 11432, "強</w>": 11433, "Hamilton</w>": 11434, "Asian</w>": 11435, "wat": 11436, "renov": 11437, "Vietnam</w>": 11438, "Jac": 11439, "según</w>": 11440, "Mr.</w>": 11441, "tutto</w>": 11442, "900</w>": 11443, "Over": 11444, "zituzten</w>": 11445, "supposed</w>": 11446, "再</w>": 11447, "הצ": 11448, "世紀</w>": 11449, "initial</w>": 11450, "ジャ": 11451, "remain</w>": 11452, "cep": 11453, "\")</w>": 11454, "rand": 11455, "מי</w>": 11456, "puesto</w>": 11457, "law": 11458, "abitanti</w>": 11459, "副</w>": 11460, "MS</w>": 11461, "Fle": 11462, "historic</w>": 11463, "ального</w>": 11464, "сп": 11465, "chaque</w>": 11466, "قد</w>": 11467, "ické</w>": 11468, "দ</w>": 11469, "simul": 11470, "Гор": 11471, "assistant</w>": 11472, "בת": 11473, "gon": 11474, "Scottish</w>": 11475, "koh": 11476, "E-": 11477, "ян</w>": 11478, "cias</w>": 11479, "выпу": 11480, "130</w>": 11481, "yards</w>": 11482, "coordin": 11483, "save</w>": 11484, "דו</w>": 11485, "ција</w>": 11486, "流": 11487, "слав": 11488, "elec": 11489, "Top": 11490, "ドイツ</w>": 11491, "Norden</w>": 11492, "Main</w>": 11493, "musste</w>": 11494, "atom": 11495, "ích</w>": 11496, "št": 11497, "Direc": 11498, "Township</w>": 11499, "Cle": 11500, "activity</w>": 11501, "그": 11502, "seem</w>": 11503, "mest</w>": 11504, "aastal</w>": 11505, "legisl": 11506, "etes</w>": 11507, "breath": 11508, "K-": 11509, "SR</w>": 11510, "bron": 11511, "Lip": 11512, "stati</w>": 11513, "reprezent": 11514, "-de-": 11515, "MA</w>": 11516, "李</w>": 11517, "ellement</w>": 11518, "సమీప</w>": 11519, "burg": 11520, "έ": 11521, "じ": 11522, "ئ": 11523, "Sac": 11524, "National": 11525, "designated</w>": 11526, "hu</w>": 11527, "kaz": 11528, "diz": 11529, "alten</w>": 11530, "さらに</w>": 11531, "tarafından</w>": 11532, "чен</w>": 11533, "ள</w>": 11534, "всех</w>": 11535, "u.</w>": 11536, "كل</w>": 11537, "mellom</w>": 11538, "установ": 11539, "వి": 11540, "07</w>": 11541, "principales</w>": 11542, "owner</w>": 11543, "dá": 11544, "jazz</w>": 11545, "humans</w>": 11546, "agreement</w>": 11547, "bronze</w>": 11548, "考え</w>": 11549, "nete</w>": 11550, "Haw": 11551, "cat</w>": 11552, "коро": 11553, "m.in.</w>": 11554, "aman</w>": 11555, "พ.ศ.</w>": 11556, "lij": 11557, "Atlantic</w>": 11558, "現": 11559, "Dub": 11560, "shit</w>": 11561, "lawis</w>": 11562, "súa</w>": 11563, "adel": 11564, "Gy": 11565, "Dan</w>": 11566, "anten</w>": 11567, "argu": 11568, "wechselte</w>": 11569, "persona</w>": 11570, "تا": 11571, "Polit": 11572, "她</w>": 11573, "以降</w>": 11574, "1869</w>": 11575, "период</w>": 11576, "m-": 11577, "اب": 11578, "Howard</w>": 11579, "prac": 11580, "growth</w>": 11581, "Zw": 11582, "ικά</w>": 11583, "all-": 11584, "Cin": 11585, "登場</w>": 11586, "Forest</w>": 11587, "eza</w>": 11588, "versión</w>": 11589, "Press</w>": 11590, "suc": 11591, "torneo</w>": 11592, "invent": 11593, "državi</w>": 11594, "зу</w>": 11595, "更</w>": 11596, "taas</w>": 11597, "sors</w>": 11598, "D'</w>": 11599, "vive</w>": 11600, "発表</w>": 11601, "бил</w>": 11602, "nec": 11603, "kultur": 11604, "ald": 11605, "elections</w>": 11606, "vr": 11607, "Nem": 11608, "wald</w>": 11609, "distinc": 11610, "specie</w>": 11611, "sas</w>": 11612, "canción</w>": 11613, "Peru</w>": 11614, "fans</w>": 11615, "פי</w>": 11616, "vir</w>": 11617, "males</w>": 11618, "మరియు</w>": 11619, "февраля</w>": 11620, "福": 11621, "absor": 11622, "Gunung</w>": 11623, "promis": 11624, "Like</w>": 11625, "automat": 11626, "donne</w>": 11627, "iler</w>": 11628, "מס": 11629, "favor</w>": 11630, "amar": 11631, "hul": 11632, "periode</w>": 11633, "קר": 11634, "kleine</w>": 11635, "書": 11636, "Việt</w>": 11637, "tech": 11638, "шт": 11639, "suggested</w>": 11640, "flan": 11641, "geboren</w>": 11642, "Nella</w>": 11643, "kak": 11644, "genom</w>": 11645, "среди</w>": 11646, "谷</w>": 11647, "11.": 11648, "kanssa</w>": 11649, "bü": 11650, "And": 11651, "Leb": 11652, "stim": 11653, "connected</w>": 11654, "owo</w>": 11655, "jordbruksmark</w>": 11656, "ску</w>": 11657, "ush</w>": 11658, "роль</w>": 11659, "Over</w>": 11660, "гру": 11661, "国家</w>": 11662, "jours</w>": 11663, "ból</w>": 11664, "nose</w>": 11665, "rain</w>": 11666, "tener</w>": 11667, "двух</w>": 11668, "appearances</w>": 11669, "信</w>": 11670, "kro": 11671, "げ</w>": 11672, "emit": 11673, "카": 11674, "門</w>": 11675, "단": 11676, "easily</w>": 11677, "flere</w>": 11678, "alguns</w>": 11679, "taught</w>": 11680, "fought</w>": 11681, "jon</w>": 11682, "git": 11683, "notes</w>": 11684, "fast": 11685, "lad</w>": 11686, "Mal</w>": 11687, "Rose</w>": 11688, "friend": 11689, "gate</w>": 11690, "lap</w>": 11691, "bry": 11692, "Highway</w>": 11693, "bic": 11694, "рі</w>": 11695, "rules</w>": 11696, "invece</w>": 11697, "Justice</w>": 11698, "forest</w>": 11699, "Hamburg</w>": 11700, "Queensland</w>": 11701, "Bis</w>": 11702, "última</w>": 11703, "pressed</w>": 11704, "Einwohner</w>": 11705, "Lav": 11706, "eerde</w>": 11707, "Bry": 11708, "ностью</w>": 11709, "朝</w>": 11710, "osta</w>": 11711, "gebaut</w>": 11712, "potential</w>": 11713, "ither</w>": 11714, "quit": 11715, "transferred</w>": 11716, "ぶ</w>": 11717, "Sing": 11718, "09</w>": 11719, "Gew": 11720, "assigned</w>": 11721, "gestellt</w>": 11722, "составляет</w>": 11723, "X-": 11724, "явля": 11725, "kah": 11726, "土": 11727, "enn</w>": 11728, "ω": 11729, "位於</w>": 11730, "Anderson</w>": 11731, "udes</w>": 11732, "Air": 11733, "ہ</w>": 11734, "proceni</w>": 11735, "sechs</w>": 11736, "titled</w>": 11737, "dade</w>": 11738, "IM": 11739, "eet</w>": 11740, "evol": 11741, "Book</w>": 11742, "направ": 11743, "escape</w>": 11744, "美</w>": 11745, "mec": 11746, "نیز</w>": 11747, "tells</w>": 11748, "review</w>": 11749, "yl</w>": 11750, "pool</w>": 11751, "encies</w>": 11752, "sedan</w>": 11753, "còn</w>": 11754, "例</w>": 11755, "approach</w>": 11756, "Teil": 11757, "hizo</w>": 11758, "Kro": 11759, "block</w>": 11760, "distribution</w>": 11761, "ardo</w>": 11762, "Sas": 11763, "Oscar</w>": 11764, "מח": 11765, "Et": 11766, "清": 11767, "경": 11768, "تق": 11769, "валь": 11770, "試合</w>": 11771, "CC</w>": 11772, "義": 11773, "okol": 11774, "И.</w>": 11775, "upper</w>": 11776, "elor</w>": 11777, "üh": 11778, "bottom</w>": 11779, "含</w>": 11780, "période</w>": 11781, "一部</w>": 11782, "stark</w>": 11783, "pł": 11784, "Best": 11785, "cidae</w>": 11786, "workers</w>": 11787, "heit": 11788, "време</w>": 11789, "Landkreis</w>": 11790, "会": 11791, "Sri</w>": 11792, "ತ": 11793, "trova</w>": 11794, "র</w>": 11795, "clin": 11796, "trust</w>": 11797, "américain</w>": 11798, "demon": 11799, "Beh": 11800, "resist": 11801, "brothers</w>": 11802, "городе</w>": 11803, "geführt</w>": 11804, "Lap": 11805, "sine</w>": 11806, "inning</w>": 11807, "び</w>": 11808, "kiel</w>": 11809, "premiers</w>": 11810, "sinh</w>": 11811, "restor": 11812, "Head</w>": 11813, "articles</w>": 11814, "ří": 11815, "sang": 11816, "ని": 11817, "яр": 11818, "алі": 11819, "Shi": 11820, "csak</w>": 11821, "beide</w>": 11822, "advan": 11823, "命</w>": 11824, "مج": 11825, "має</w>": 11826, "Stand": 11827, "21": 11828, "ič": 11829, "kus</w>": 11830, "seis</w>": 11831, "tok</w>": 11832, "това</w>": 11833, "ało</w>": 11834, "צ</w>": 11835, "hers</w>": 11836, "yen</w>": 11837, "Nations</w>": 11838, "muerte</w>": 11839, "реш": 11840, "二": 11841, "وی": 11842, "с-": 11843, "Reb": 11844, "అ": 11845, "éc": 11846, "istä</w>": 11847, "الد": 11848, "клуб</w>": 11849, "appo": 11850, "figures</w>": 11851, "関係</w>": 11852, "också</w>": 11853, "каз": 11854, "кого</w>": 11855, "обла": 11856, "192": 11857, "anan</w>": 11858, "acja</w>": 11859, "esses</w>": 11860, "Rh": 11861, "Log": 11862, "ί": 11863, "sian</w>": 11864, "کار": 11865, "harmon": 11866, "tijd</w>": 11867, "calcul": 11868, "神</w>": 11869, "修": 11870, "opposition</w>": 11871, "aq": 11872, "Wisconsin</w>": 11873, "த": 11874, "toujours</w>": 11875, "Tokyo</w>": 11876, "bor</w>": 11877, "р.</w>": 11878, "aju</w>": 11879, "dut": 11880, "post-": 11881, "long-": 11882, "elas</w>": 11883, "vit</w>": 11884, "osos</w>": 11885, "ться</w>": 11886, "på": 11887, "mik": 11888, "cross</w>": 11889, "ffen</w>": 11890, "storia</w>": 11891, "campionato</w>": 11892, "sous-": 11893, "tik</w>": 11894, "usly</w>": 11895, "Final</w>": 11896, "Memorial</w>": 11897, "která</w>": 11898, "לע": 11899, "Microsoft</w>": 11900, "Afrika</w>": 11901, "尼": 11902, "Ia</w>": 11903, "Beau": 11904, "conqu": 11905, "Za</w>": 11906, "Ast": 11907, "übernahm</w>": 11908, "май": 11909, "weiteren</w>": 11910, "conocido</w>": 11911, "cá": 11912, "ग</w>": 11913, "лей": 11914, "Mut": 11915, "rank</w>": 11916, "anal": 11917, "ろ</w>": 11918, "校</w>": 11919, "Teh": 11920, "нього</w>": 11921, "영": 11922, "世": 11923, "erreichte</w>": 11924, "שם</w>": 11925, "eja</w>": 11926, "prominent</w>": 11927, "aise</w>": 11928, "ина</w>": 11929, "itt</w>": 11930, "Mam": 11931, "ズ": 11932, "影響</w>": 11933, "ords</w>": 11934, "meister</w>": 11935, "estava</w>": 11936, "statist": 11937, "denne</w>": 11938, "altra</w>": 11939, "stock</w>": 11940, "勝</w>": 11941, "and-": 11942, "Cross</w>": 11943, "нем</w>": 11944, "вет": 11945, "week": 11946, "liqu": 11947, "гро": 11948, "esh</w>": 11949, "num</w>": 11950, "König</w>": 11951, "03</w>": 11952, "illas</w>": 11953, "annen</w>": 11954, "emi": 11955, "hov": 11956, "yh": 11957, "stehen</w>": 11958, "composit": 11959, "ын</w>": 11960, "strugg": 11961, "unity</w>": 11962, "majd</w>": 11963, "Kit": 11964, "asure</w>": 11965, "affili": 11966, "patri": 11967, "product</w>": 11968, "environ": 11969, "這": 11970, "break": 11971, "teacher</w>": 11972, "nur": 11973, "Internacional</w>": 11974, "varias</w>": 11975, "zes": 11976, "jä": 11977, "명": 11978, "ката</w>": 11979, "bola</w>": 11980, "welche</w>": 11981, "イン</w>": 11982, "rale</w>": 11983, "Fair": 11984, "rôle</w>": 11985, "好</w>": 11986, "bekend</w>": 11987, "L-": 11988, "ref": 11989, "野": 11990, "Cou": 11991, "elly</w>": 11992, "gu</w>": 11993, "Vater</w>": 11994, "strength</w>": 11995, "кол": 11996, "Gold": 11997, "follows</w>": 11998, "сты": 11999, "blir</w>": 12000, "ству</w>": 12001, "06</w>": 12002, "stal": 12003, "orders</w>": 12004, "нения</w>": 12005, "Din": 12006, "zuten</w>": 12007, "Power</w>": 12008, "代": 12009, "iner</w>": 12010, "fusion</w>": 12011, "scale</w>": 12012, "resto</w>": 12013, "scholar": 12014, "ップ</w>": 12015, "Nah": 12016, "aching</w>": 12017, "daw": 12018, "nummer</w>": 12019, "animals</w>": 12020, "protect</w>": 12021, "образ": 12022, "zad": 12023, "costa</w>": 12024, "ರ": 12025, "jälkeen</w>": 12026, "плат": 12027, "nivel</w>": 12028, "спа": 12029, "priv": 12030, "astronom": 12031, "किया</w>": 12032, "mark": 12033, "Dru": 12034, "дз": 12035, "sevent": 12036, "sight</w>": 12037, "concep": 12038, "proc": 12039, "ай": 12040, "波": 12041, "anden</w>": 12042, "atos</w>": 12043, "وفي</w>": 12044, "ség</w>": 12045, "XII</w>": 12046, "Brig": 12047, "uda</w>": 12048, "eses</w>": 12049, "Junior</w>": 12050, "effects</w>": 12051, "euse</w>": 12052, "chart</w>": 12053, "Clark</w>": 12054, "בר</w>": 12055, "одним</w>": 12056, "ның</w>": 12057, "jeweils</w>": 12058, "XIV</w>": 12059, "rating</w>": 12060, "io": 12061, "교": 12062, "serves</w>": 12063, "था</w>": 12064, "ins": 12065, "hockey</w>": 12066, "Stat": 12067, "ко-": 12068, "eka</w>": 12069, "表</w>": 12070, "ligen</w>": 12071, "Bom": 12072, "Hitler</w>": 12073, "candidate</w>": 12074, "Ng": 12075, "gil": 12076, "cis</w>": 12077, "Kentucky</w>": 12078, "telling</w>": 12079, "gev": 12080, "ші</w>": 12081, "privat": 12082, "rep": 12083, "istic</w>": 12084, "recht</w>": 12085, "retro": 12086, "Marine</w>": 12087, "の": 12088, "frå</w>": 12089, "mixed</w>": 12090, "جمعیت</w>": 12091, "växtart</w>": 12092, "五</w>": 12093, "hơn</w>": 12094, "産</w>": 12095, "organized</w>": 12096, "modi": 12097, "sero</w>": 12098, "Casa</w>": 12099, "projects</w>": 12100, "экономи": 12101, "US-": 12102, "remember": 12103, "한": 12104, "grave</w>": 12105, "ஸ</w>": 12106, "pieces</w>": 12107, "1960s</w>": 12108, "effici": 12109, "elabor": 12110, "Alan</w>": 12111, "наз": 12112, "江</w>": 12113, "Фран": 12114, "Кор": 12115, "baj": 12116, "none</w>": 12117, "new": 12118, "eless</w>": 12119, "divis": 12120, "cup</w>": 12121, "Khan</w>": 12122, "کو</w>": 12123, "mission": 12124, "1990s</w>": 12125, "ро</w>": 12126, "wis": 12127, "Spi": 12128, "Walker</w>": 12129, "villages</w>": 12130, "travel</w>": 12131, "學": 12132, "thi": 12133, "unable</w>": 12134, "grote</w>": 12135, "tom</w>": 12136, "ně": 12137, "Tul": 12138, "grupos</w>": 12139, "撃</w>": 12140, "miento</w>": 12141, "maja</w>": 12142, "Сер": 12143, "oner</w>": 12144, "deur</w>": 12145, "agi</w>": 12146, "combat": 12147, "febrero</w>": 12148, "Gebäude</w>": 12149, "ско-": 12150, "déc": 12151, "ション</w>": 12152, "لم</w>": 12153, "laid</w>": 12154, "部": 12155, "rev": 12156, "urt</w>": 12157, "Wall": 12158, "ations": 12159, "90": 12160, "offers</w>": 12161, "pio</w>": 12162, "пры": 12163, "település</w>": 12164, "muito</w>": 12165, "italiana</w>": 12166, "Development</w>": 12167, "podczas</w>": 12168, "Jesus</w>": 12169, "bij": 12170, "occurred</w>": 12171, "sina</w>": 12172, "NS": 12173, "stif": 12174, "фа</w>": 12175, "레": 12176, "ierung</w>": 12177, "rano</w>": 12178, "Green": 12179, "Hall": 12180, "nico</w>": 12181, "189": 12182, "1859</w>": 12183, "sively</w>": 12184, "Micro": 12185, "フランス</w>": 12186, "ț": 12187, "teeth</w>": 12188, "وج": 12189, "horse</w>": 12190, "tradu": 12191, "Jes": 12192, "edificio</w>": 12193, "ین</w>": 12194, "Born</w>": 12195, "setzte</w>": 12196, "цію</w>": 12197, "mobil": 12198, "Staat": 12199, "ű</w>": 12200, "Jed": 12201, "Origin": 12202, "название</w>": 12203, "نسمة</w>": 12204, "Universit": 12205, "passing</w>": 12206, "Cost": 12207, "escap": 12208, "dès</w>": 12209, "נות</w>": 12210, "iter": 12211,
[...]
